<unk>	0
<s>	0
</s>	0
<0x00>	0
<0x01>	0
<0x02>	0
<0x03>	0
<0x04>	0
<0x05>	0
<0x06>	0
<0x07>	0
<0x08>	0
<0x09>	0
<0x0A>	0
<0x0B>	0
<0x0C>	0
<0x0D>	0
<0x0E>	0
<0x0F>	0
<0x10>	0
<0x11>	0
<0x12>	0
<0x13>	0
<0x14>	0
<0x15>	0
<0x16>	0
<0x17>	0
<0x18>	0
<0x19>	0
<0x1A>	0
<0x1B>	0
<0x1C>	0
<0x1D>	0
<0x1E>	0
<0x1F>	0
<0x20>	0
<0x21>	0
<0x22>	0
<0x23>	0
<0x24>	0
<0x25>	0
<0x26>	0
<0x27>	0
<0x28>	0
<0x29>	0
<0x2A>	0
<0x2B>	0
<0x2C>	0
<0x2D>	0
<0x2E>	0
<0x2F>	0
<0x30>	0
<0x31>	0
<0x32>	0
<0x33>	0
<0x34>	0
<0x35>	0
<0x36>	0
<0x37>	0
<0x38>	0
<0x39>	0
<0x3A>	0
<0x3B>	0
<0x3C>	0
<0x3D>	0
<0x3E>	0
<0x3F>	0
<0x40>	0
<0x41>	0
<0x42>	0
<0x43>	0
<0x44>	0
<0x45>	0
<0x46>	0
<0x47>	0
<0x48>	0
<0x49>	0
<0x4A>	0
<0x4B>	0
<0x4C>	0
<0x4D>	0
<0x4E>	0
<0x4F>	0
<0x50>	0
<0x51>	0
<0x52>	0
<0x53>	0
<0x54>	0
<0x55>	0
<0x56>	0
<0x57>	0
<0x58>	0
<0x59>	0
<0x5A>	0
<0x5B>	0
<0x5C>	0
<0x5D>	0
<0x5E>	0
<0x5F>	0
<0x60>	0
<0x61>	0
<0x62>	0
<0x63>	0
<0x64>	0
<0x65>	0
<0x66>	0
<0x67>	0
<0x68>	0
<0x69>	0
<0x6A>	0
<0x6B>	0
<0x6C>	0
<0x6D>	0
<0x6E>	0
<0x6F>	0
<0x70>	0
<0x71>	0
<0x72>	0
<0x73>	0
<0x74>	0
<0x75>	0
<0x76>	0
<0x77>	0
<0x78>	0
<0x79>	0
<0x7A>	0
<0x7B>	0
<0x7C>	0
<0x7D>	0
<0x7E>	0
<0x7F>	0
<0x80>	0
<0x81>	0
<0x82>	0
<0x83>	0
<0x84>	0
<0x85>	0
<0x86>	0
<0x87>	0
<0x88>	0
<0x89>	0
<0x8A>	0
<0x8B>	0
<0x8C>	0
<0x8D>	0
<0x8E>	0
<0x8F>	0
<0x90>	0
<0x91>	0
<0x92>	0
<0x93>	0
<0x94>	0
<0x95>	0
<0x96>	0
<0x97>	0
<0x98>	0
<0x99>	0
<0x9A>	0
<0x9B>	0
<0x9C>	0
<0x9D>	0
<0x9E>	0
<0x9F>	0
<0xA0>	0
<0xA1>	0
<0xA2>	0
<0xA3>	0
<0xA4>	0
<0xA5>	0
<0xA6>	0
<0xA7>	0
<0xA8>	0
<0xA9>	0
<0xAA>	0
<0xAB>	0
<0xAC>	0
<0xAD>	0
<0xAE>	0
<0xAF>	0
<0xB0>	0
<0xB1>	0
<0xB2>	0
<0xB3>	0
<0xB4>	0
<0xB5>	0
<0xB6>	0
<0xB7>	0
<0xB8>	0
<0xB9>	0
<0xBA>	0
<0xBB>	0
<0xBC>	0
<0xBD>	0
<0xBE>	0
<0xBF>	0
<0xC0>	0
<0xC1>	0
<0xC2>	0
<0xC3>	0
<0xC4>	0
<0xC5>	0
<0xC6>	0
<0xC7>	0
<0xC8>	0
<0xC9>	0
<0xCA>	0
<0xCB>	0
<0xCC>	0
<0xCD>	0
<0xCE>	0
<0xCF>	0
<0xD0>	0
<0xD1>	0
<0xD2>	0
<0xD3>	0
<0xD4>	0
<0xD5>	0
<0xD6>	0
<0xD7>	0
<0xD8>	0
<0xD9>	0
<0xDA>	0
<0xDB>	0
<0xDC>	0
<0xDD>	0
<0xDE>	0
<0xDF>	0
<0xE0>	0
<0xE1>	0
<0xE2>	0
<0xE3>	0
<0xE4>	0
<0xE5>	0
<0xE6>	0
<0xE7>	0
<0xE8>	0
<0xE9>	0
<0xEA>	0
<0xEB>	0
<0xEC>	0
<0xED>	0
<0xEE>	0
<0xEF>	0
<0xF0>	0
<0xF1>	0
<0xF2>	0
<0xF3>	0
<0xF4>	0
<0xF5>	0
<0xF6>	0
<0xF7>	0
<0xF8>	0
<0xF9>	0
<0xFA>	0
<0xFB>	0
<0xFC>	0
<0xFD>	0
<0xFE>	0
<0xFF>	0
,	-3.25299
a	-3.38568
▁	-3.40926
.	-3.60377
▁eta	-4.11239
ko	-4.19271
ak	-4.21371
en	-4.65082
n	-4.7423
an	-4.75765
-	-4.79499
k	-4.88552
s	-4.91634
0	-4.93367
1	-4.96156
▁da	-5.02167
aren	-5.1377
2	-5.16606
z	-5.17436
▁de	-5.24893
ra	-5.29665
:	-5.34421
tu	-5.38016
i	-5.44186
ri	-5.44797
ta	-5.46037
▁ez	-5.48112
ren	-5.5343
o	-5.58522
▁(	-5.68516
▁bat	-5.70975
tzen	-5.74166
ek	-5.76385
e	-5.78362
r	-5.78447
▁du	-5.78778
t	-5.7931
▁ere	-5.84541
3	-5.88564
▁A	-5.91562
da	-5.93469
tzeko	-5.93733
▁a	-5.93768
▁izan	-5.93858
u	-5.96573
la	-5.96734
)	-5.97289
9	-6.00079
etan	-6.00461
▁dira	-6.00526
te	-6.025
5	-6.07141
▁|	-6.0803
ean	-6.08752
▁la	-6.14902
4	-6.16159
l	-6.16578
▁egin	-6.17399
ki	-6.195
▁edo	-6.26552
▁zen	-6.28031
go	-6.28968
8	-6.29653
rik	-6.30295
tik	-6.30625
6	-6.31905
ti	-6.32336
ari	-6.33065
▁dute	-6.33669
le	-6.34367
di	-6.3708
ma	-6.38037
7	-6.38303
tzea	-6.38958
▁E	-6.41503
▁behar	-6.41728
eko	-6.4263
;	-6.43402
do	-6.45811
ro	-6.4654
re	-6.48065
na	-6.50066
ez	-6.50089
to	-6.51651
lo	-6.5375
▁zuen	-6.54113
tza	-6.54363
▁I	-6.54366
▁beste	-6.54806
ba	-6.57108
c	-6.57118
gi	-6.58343
▁den	-6.59378
ei	-6.59627
▁e	-6.61212
ka	-6.61614
▁en	-6.61653
in	-6.62968
▁y	-6.63042
es	-6.63402
▁el	-6.6372
A	-6.64815
tako	-6.66115
d	-6.67332
▁-	-6.68869
▁bi	-6.69889
y	-6.70852
era	-6.71923
▁"	-6.72589
▁bere	-6.72765
g	-6.75642
▁izango	-6.77261
ten	-6.77944
er	-6.78488
▁o	-6.79437
p	-6.81165
m	-6.81465
ga	-6.82991
▁se	-6.83608
▁hori	-6.84301
▁ba	-6.84358
du	-6.84598
▁hau	-6.84635
pa	-6.85664
de	-6.86864
▁lan	-6.87265
▁duten	-6.87355
▁egiten	-6.87588
▁diren	-6.88238
▁nahi	-6.8936
li	-6.894
ar	-6.89682
?	-6.89861
tan	-6.89874
ne	-6.90587
▁O	-6.90847
gu	-6.91022
▁al	-6.91072
▁baina	-6.92232
▁que	-6.92345
E	-6.92349
bi	-6.92519
tze	-6.92971
ur	-6.93448
etako	-6.93937
▁duen	-6.94456
"	-6.94974
▁ditu	-6.95287
ekin	-6.95594
no	-6.95667
ik	-6.99087
I	-7.00126
arekin	-7.01546
ia	-7.02171
zio	-7.03468
B	-7.03774
▁in	-7.04005
si	-7.04251
▁con	-7.05845
▁oso	-7.07509
be	-7.08666
lu	-7.09615
▁dugu	-7.1059
▁es	-7.11785
P	-7.12123
zko	-7.12165
▁ziren	-7.12516
▁dela	-7.12607
keta	-7.13393
ku	-7.13606
al	-7.1383
mo	-7.14073
▁zuten	-7.14391
▁S	-7.15186
me	-7.15337
▁urte	-7.15623
rako	-7.15682
b	-7.16785
mi	-7.17111
▁del	-7.17772
▁B	-7.18295
▁C	-7.19331
▁«	-7.19862
men	-7.20098
▁P	-7.21133
so	-7.21536
pi	-7.21748
rekin	-7.22096
on	-7.22143
▁dago	-7.22254
or	-7.23325
▁bai	-7.23817
T	-7.24978
sta	-7.25867
▁ari	-7.2634
bide	-7.28315
▁eman	-7.28404
ru	-7.2857
co	-7.2918
).	-7.29202
rri	-7.30599
hi	-7.30712
▁i	-7.31679
ni	-7.33231
▁su	-7.34014
pen	-7.34081
▁F	-7.34307
os	-7.34736
zi	-7.34739
se	-7.34852
▁“	-7.34972
eta	-7.34973
▁talde	-7.35357
iz	-7.35513
▁los	-7.35713
▁berri	-7.36291
▁T	-7.36376
▁egun	-7.36529
az	-7.36781
▁parte	-7.37399
ción	-7.38697
▁baino	-7.39002
zu	-7.39035
▁bizi	-7.39142
ke	-7.39169
▁di	-7.40198
S	-7.4027
txa	-7.40858
ci	-7.40972
tegi	-7.41195
za	-7.42509
▁dituzte	-7.43025
▁gure	-7.43046
▁Ar	-7.43405
ria	-7.43626
▁ha	-7.43677
▁Al	-7.4378
▁esan	-7.43794
tasun	-7.43838
...	-7.44031
bil	-7.44562
pe	-7.44611
sa	-7.45374
▁erre	-7.45496
us	-7.45658
▁lehen	-7.46452
▁las	-7.46884
▁Euskal	-7.47021
▁hartu	-7.47148
▁gehiago	-7.47287
un	-7.48272
»	-7.49838
C	-7.50204
▁do	-7.50388
▁aukera	-7.50506
ca	-7.50562
▁zer	-7.50965
▁ma	-7.51042
▁ahal	-7.51177
L	-7.51857
ce	-7.51879
▁Ez	-7.52009
▁kon	-7.52219
rra	-7.52591
G	-7.52642
▁zi	-7.52678
▁egiteko	-7.54699
M	-7.55363
▁batean	-7.554
▁Eta	-7.55793
▁pro	-7.5604
▁bezala	-7.56689
▁dio	-7.56795
fi	-7.57628
sti	-7.57825
▁artean	-7.57906
tzi	-7.58269
▁asko	-7.58299
▁por	-7.58303
▁mo	-7.58416
ela	-7.58598
tasuna	-7.59573
tutako	-7.59694
▁U	-7.59815
tuko	-7.59871
O	-7.60228
vi	-7.60316
ter	-7.60394
H	-7.61194
tz	-7.61929
▁gai	-7.6205
tea	-7.62241
▁gabe	-7.63494
f	-7.63718
▁Bi	-7.63848
▁baita	-7.6468
”	-7.64688
▁gara	-7.64699
U	-7.65207
!	-7.65255
▁bide	-7.65822
▁Ba	-7.66046
▁G	-7.66168
/	-7.66187
D	-7.66385
▁pa	-7.66591
▁honetan	-7.66687
▁azken	-7.66771
N	-7.6701
dun	-7.67191
po	-7.67461
é	-7.67577
il	-7.68133
txo	-7.68178
▁no	-7.68595
▁un	-7.68893
▁K	-7.68959
▁La	-7.69401
▁arabera	-7.69562
▁har	-7.69565
ha	-7.70463
▁ar	-7.70596
▁baten	-7.70995
▁herri	-7.71637
),	-7.72243
▁batzuk	-7.73169
▁gero	-7.73563
lan	-7.7357
▁Le	-7.73632
▁batera	-7.73699
▁bidez	-7.73847
▁hitz	-7.7385
▁be	-7.7404
▁egingo	-7.74157
▁bada	-7.74237
▁lo	-7.7443
'	-7.74651
etik	-7.74692
▁horiek	-7.74904
tuta	-7.75091
ge	-7.75154
bo	-7.75238
teko	-7.75262
▁handi	-7.75289
▁arte	-7.75579
ratu	-7.75879
▁c	-7.76195
ber	-7.76202
tra	-7.76216
io	-7.76281
tua	-7.76334
▁Ma	-7.76754
▁he	-7.76806
▁re	-7.76832
tro	-7.76834
▁para	-7.77066
K	-7.77541
katu	-7.78553
rak	-7.78618
rre	-7.78623
▁alde	-7.79052
mendu	-7.79344
▁le	-7.79585
▁buruzko	-7.79689
▁bete	-7.7971
ago	-7.80017
etatik	-7.8006
Z	-7.80087
▁dituen	-7.80245
▁dut	-7.80807
▁beharko	-7.81055
▁zein	-7.8142
▁esku	-7.81696
je	-7.81865
▁De	-7.82286
▁ematen	-7.8252
x	-7.83012
KO	-7.83194
el	-7.83273
ja	-7.83322
▁era	-7.84568
ntzi	-7.84824
▁po	-7.85008
▁aurrera	-7.85197
nda	-7.85512
ña	-7.85594
tzat	-7.85608
ho	-7.86057
ste	-7.8608
gai	-7.86359
ve	-7.86575
▁jaso	-7.86583
w	-7.86833
▁zuzen	-7.87746
▁%	-7.87819
▁li	-7.88035
gar	-7.88074
aldi	-7.88107
▁on	-7.88238
­	-7.88285
▁modu	-7.88661
tsu	-7.88699
▁f	-7.8891
▁dituzten	-7.8901
▁*	-7.89231
ze	-7.89591
▁hainbat	-7.89599
▁publiko	-7.89691
h	-7.90191
▁erabaki	-7.90558
▁ka	-7.90822
su	-7.90837
zioa	-7.90895
tzu	-7.91174
▁zerbitzu	-7.91232
▁arteko	-7.91303
zo	-7.91353
▁gain	-7.91429
▁ezin	-7.91608
▁zituen	-7.91695
is	-7.91904
▁jarri	-7.92401
▁gazte	-7.92452
tar	-7.92903
▁In	-7.92988
▁egon	-7.93742
▁nola	-7.94111
▁gaur	-7.94243
▁to	-7.94356
▁mu	-7.94599
▁Be	-7.94688
▁–	-7.94977
▁hasi	-7.95123
res	-7.95165
▁El	-7.95263
▁so	-7.95334
▁Pa	-7.95432
▁D	-7.95459
▁direla	-7.95746
F	-7.95906
▁duela	-7.97112
zen	-7.97121
▁Se	-7.97362
▁horretan	-7.97995
kuntza	-7.98344
▁lagun	-7.98722
▁plan	-7.98751
▁M	-7.98843
▁Ur	-7.99264
garri	-7.99394
▁ondoren	-7.99646
▁ur	-8.00187
etara	-8.00308
pena	-8.0054
▁hiru	-8.00598
▁San	-8.0109
▁argi	-8.01137
▁er	-8.01211
▁proiektu	-8.01388
tzaile	-8.01599
▁zu	-8.01685
EN	-8.01705
tatu	-8.02581
▁daiteke	-8.0263
▁ber	-8.02683
▁pertsona	-8.02749
tal	-8.02888
▁sin	-8.03111
á	-8.03164
▁egoera	-8.03205
V	-8.03342
les	-8.03531
lari	-8.03782
cu	-8.03808
gin	-8.03964
et	-8.04109
▁ondo	-8.04308
▁—	-8.04465
▁dagoen	-8.04515
xe	-8.04828
▁guztiak	-8.04883
▁/	-8.05189
ER	-8.05196
**	-8.05221
▁des	-8.05589
▁egindako	-8.05598
▁jo	-8.0567
▁joan	-8.05672
▁egitea	-8.05763
man	-8.06002
▁izatea	-8.0608
▁eragin	-8.06086
va	-8.06129
▁sal	-8.06164
▁hil	-8.0621
▁horren	-8.06396
ok	-8.06563
tsa	-8.07204
▁za	-8.07504
itate	-8.07647
▁gizarte	-8.07675
txi	-8.07866
▁ikusi	-8.0799
ismo	-8.08624
rio	-8.09281
ts	-8.0942
▁sortu	-8.09528
xi	-8.09611
▁Sa	-8.09616
▁gisa	-8.09721
▁ca	-8.0978
í	-8.09938
▁zure	-8.10523
▁egoki	-8.10588
tor	-8.10763
]	-8.10844
▁ditugu	-8.11262
per	-8.11471
▁bertan	-8.11542
ciones	-8.11767
▁daude	-8.11926
▁H	-8.12064
der	-8.12185
▁me	-8.12265
kar	-8.1251
▁Udal	-8.13047
ul	-8.13062
▁guzti	-8.13259
▁Es	-8.13299
▁J	-8.13385
ó	-8.13501
▁duzu	-8.13697
gra	-8.13894
▁gu	-8.13948
▁**	-8.14038
▁En	-8.14064
▁eska	-8.14116
▁lortu	-8.14267
▁txiki	-8.14392
que	-8.14719
▁An	-8.14764
▁V	-8.14882
tura	-8.15024
▁Baina	-8.15376
fe	-8.1538
he	-8.15396
▁jakin	-8.15434
nt	-8.15474
▁balio	-8.15542
▁ni	-8.15749
▁gauza	-8.16052
▁zela	-8.16187
▁garai	-8.16571
▁oinarri	-8.16915
▁gehien	-8.17176
▁bera	-8.17262
▁sa	-8.1783
▁erakunde	-8.17944
ina	-8.1795
▁diru	-8.18677
sto	-8.1893
▁ja	-8.19007
▁batek	-8.1907
▁dauden	-8.19227
▁bo	-8.1938
st	-8.19405
AR	-8.19586
▁ho	-8.19761
▁etxe	-8.20019
▁aurkeztu	-8.20124
ero	-8.20177
pu	-8.20243
▁Mu	-8.20284
dia	-8.2031
egi	-8.20529
▁hor	-8.20565
▁berriz	-8.20911
kin	-8.20914
▁horrek	-8.21119
bar	-8.21147
itz	-8.21177
▁ordu	-8.21189
▁Ko	-8.21205
▁emakume	-8.21351
etarako	-8.21489
▁arau	-8.21753
▁uste	-8.21809
▁hauek	-8.21882
RA	-8.22013
tiko	-8.22073
▁euskal	-8.22241
▁hala	-8.22354
▁hiri	-8.22385
kide	-8.22431
▁Ka	-8.2253
tzera	-8.22638
ola	-8.23054
ño	-8.23167
▁buruz	-8.23209
▁lege	-8.23607
▁ex	-8.24189
▁utzi	-8.24319
zki	-8.24475
▁L	-8.2456
▁pasa	-8.24701
▁Di	-8.2498
▁dis	-8.25053
▁elkar	-8.25077
lar	-8.25081
▁ze	-8.25086
erako	-8.25158
iko	-8.25166
▁erabili	-8.26303
gur	-8.26337
it	-8.26555
buru	-8.26623
txe	-8.26682
ir	-8.26877
mu	-8.2702
AK	-8.27065
▁Ha	-8.27079
▁batez	-8.27171
▁Mo	-8.28051
▁orain	-8.28064
*	-8.2809
▁aurre	-8.28205
▁handia	-8.2821
▁go	-8.28303
das	-8.28427
▁laguntza	-8.28533
tibo	-8.28553
ndo	-8.28557
▁Mar	-8.28873
qui	-8.29031
▁Hori	-8.2917
R	-8.29356
idad	-8.29417
har	-8.29465
ble	-8.29524
▁liburu	-8.29565
ndi	-8.29597
dan	-8.29603
▁mundu	-8.29843
garria	-8.29855
▁leku	-8.29957
▁izateko	-8.30003
▁zabal	-8.30013
▁nagusi	-8.3003
ing	-8.30062
▁udal	-8.30121
▁langile	-8.30404
▁hartzen	-8.30414
▁zituzten	-8.3096
▁kale	-8.31423
ación	-8.31725
lla	-8.31899
▁gutxi	-8.32009
▁hi	-8.32053
▁pi	-8.32061
".	-8.32145
▁ta	-8.32149
arte	-8.32211
▁Gu	-8.32311
gan	-8.32523
▁euro	-8.32625
▁alda	-8.3263
▁eduki	-8.32653
den	-8.32756
▁co	-8.33181
▁sartu	-8.33327
▁erdi	-8.3339
▁per	-8.33527
ch	-8.33553
▁Ber	-8.3362
▁esta	-8.33772
▁p	-8.33924
▁honen	-8.3397
dos	-8.34001
▁kide	-8.3444
AN	-8.34719
▁Hala	-8.34776
▁Ca	-8.34928
▁Herri	-8.34988
▁Re	-8.35051
▁irudi	-8.35088
gabe	-8.35429
min	-8.35518
».	-8.35632
ban	-8.35643
dar	-8.35665
▁kasu	-8.35683
▁buru	-8.35686
gatik	-8.35725
dura	-8.35959
▁behin	-8.36072
▁ab	-8.362
tuz	-8.36216
▁ikus	-8.36222
▁atera	-8.36284
▁Li	-8.36651
▁Mi	-8.36885
IN	-8.37131
▁sozial	-8.37134
▁hizkuntza	-8.37135
▁jarrai	-8.3714
riko	-8.37142
tri	-8.37166
v	-8.37295
▁zehar	-8.37528
▁ne	-8.37931
tos	-8.37938
▁izen	-8.37943
▁una	-8.38343
gintza	-8.38731
gune	-8.38874
▁sistema	-8.38898
▁enpresa	-8.39089
▁adierazi	-8.39152
▁hobe	-8.39583
▁Ga	-8.39802
gen	-8.40146
▁g	-8.40411
arra	-8.40575
ol	-8.40579
▁Era	-8.41285
rro	-8.4131
▁forma	-8.41518
gun	-8.41544
▁Ja	-8.41644
▁beti	-8.41948
▁jende	-8.42137
J	-8.42174
▁mar	-8.42475
▁au	-8.42553
▁puntu	-8.42553
▁berean	-8.42574
▁prozesu	-8.42618
▁W	-8.42661
▁lau	-8.42715
▁helburu	-8.42941
▁Beste	-8.43031
nu	-8.43432
rrak	-8.43437
▁ikasle	-8.43912
▁pre	-8.44152
nte	-8.44349
bu	-8.44376
▁bigarren	-8.44538
oi	-8.44637
TA	-8.44706
▁erabiltzen	-8.44788
▁antolatu	-8.44812
zka	-8.45001
▁kontu	-8.45022
▁m	-8.45144
tzak	-8.45293
▁dugun	-8.45373
gor	-8.45425
▁begira	-8.45524
▁or	-8.45569
din	-8.45778
▁elkarte	-8.45841
ente	-8.46157
▁b	-8.46343
mos	-8.46612
▁et	-8.46622
dio	-8.46645
▁auto	-8.4667
▁arazo	-8.46682
▁ira	-8.47103
jo	-8.47163
▁eskatu	-8.47238
▁Lo	-8.47516
ndu	-8.4753
▁Eusko	-8.4775
tion	-8.47822
lako	-8.47884
▁azaldu	-8.47948
ide	-8.48116
alde	-8.48158
▁tra	-8.4824
▁Do	-8.48295
ntz	-8.48397
▁programa	-8.4887
▁mende	-8.49051
▁gogo	-8.49356
▁barne	-8.49456
rean	-8.49519
tuak	-8.49561
▁Su	-8.49628
▁u	-8.49867
▁si	-8.49903
tzean	-8.49947
rren	-8.49989
▁kontra	-8.5008
mp	-8.50169
▁denbora	-8.502
▁gora	-8.50432
▁Lan	-8.5092
▁bakarrik	-8.50922
▁zaio	-8.50959
entzat	-8.51135
▁musika	-8.51228
nal	-8.51376
▁mi	-8.51526
par	-8.51609
▁eremu	-8.51695
▁babes	-8.51711
▁of	-8.51762
▁aste	-8.51896
bel	-8.52171
▁izaten	-8.52248
▁naiz	-8.52375
fa	-8.52574
tera	-8.52695
itu	-8.52864
leku	-8.5304
th	-8.53085
▁onartu	-8.53124
▁So	-8.53422
▁idatzi	-8.53477
▁politiko	-8.53495
kari	-8.53686
tin	-8.53772
▁dutela	-8.53816
▁hemen	-8.53828
zia	-8.54007
▁Er	-8.54031
mon	-8.54222
miento	-8.54231
▁honek	-8.54231
rea	-8.54316
▁DE	-8.54362
ista	-8.54367
▁Za	-8.54697
▁epe	-8.54815
▁inguruan	-8.55066
▁Da	-8.55117
tsi	-8.55208
’	-8.55242
▁sor	-8.55497
▁Jo	-8.55873
▁Kon	-8.55876
rá	-8.55882
ía	-8.55953
▁Zer	-8.563
▁emateko	-8.56304
▁vi	-8.56671
ldi	-8.56883
vo	-8.57048
▁osasun	-8.57493
▁nire	-8.57499
bor	-8.57508
len	-8.57536
her	-8.57559
tari	-8.57632
▁bila	-8.57682
▁hain	-8.57694
rrek	-8.58031
▁the	-8.58071
dik	-8.5811
▁han	-8.58145
las	-8.58228
▁familia	-8.58296
▁esker	-8.58319
ngo	-8.58459
entzia	-8.58495
OR	-8.58549
▁dauka	-8.5874
agoa	-8.58891
▁zain	-8.58899
TE	-8.58906
au	-8.59183
mente	-8.59481
▁Or	-8.59592
▁N	-8.5978
▁aurretik	-8.59809
▁Me	-8.59943
▁zenbait	-8.60015
▁ga	-8.60155
▁erraz	-8.60229
▁fi	-8.60243
▁ondorioz	-8.6026
▁maila	-8.60356
▁zati	-8.605
▁gainera	-8.60528
▁erantzun	-8.60915
▁euskara	-8.60954
katzen	-8.61024
▁ireki	-8.61034
reko	-8.61115
▁luze	-8.6115
TU	-8.61185
▁eskola	-8.612
▁desberdin	-8.61217
▁jarraitu	-8.61328
▁Vi	-8.61516
▁arlo	-8.61717
RI	-8.61809
ON	-8.6184
▁nuen	-8.61869
▁No	-8.61883
nd	-8.61975
▁Bo	-8.62125
▁ikas	-8.62507
lle	-8.62537
▁beren	-8.62581
ile	-8.62676
▁bildu	-8.6272
ketak	-8.6276
▁genuen	-8.62773
▁gizon	-8.62897
▁Zi	-8.6296
▁As	-8.62992
▁haur	-8.62999
RE	-8.63014
fo	-8.63067
▁Na	-8.63184
xo	-8.63429
ú	-8.63456
▁Mari	-8.637
AL	-8.63714
ed	-8.63793
▁garbi	-8.63923
ven	-8.64117
▁beraz	-8.6429
▁ju	-8.64292
▁arra	-8.64392
aldia	-8.64485
▁toki	-8.64525
▁bu	-8.64631
gailu	-8.64686
▁bizitza	-8.64747
▁dena	-8.64782
—	-8.64892
ere	-8.65027
▁Egun	-8.65123
▁aldaketa	-8.65198
zten	-8.65278
▁kontuan	-8.65308
cha	-8.65314
▁Z	-8.65368
gaz	-8.6542
tre	-8.65638
”.	-8.65695
DA	-8.65718
ES	-8.65933
kal	-8.6594
▁nahiz	-8.66078
tore	-8.66143
▁Ne	-8.6615
▁Par	-8.66216
▁izena	-8.66289
▁Ju	-8.66328
▁eskubide	-8.66426
▁pe	-8.66653
ska	-8.66662
▁kirol	-8.6677
stu	-8.66821
▁•	-8.67229
▁aurrean	-8.67577
encia	-8.677
▁neurri	-8.67765
iza	-8.67863
▁indar	-8.67924
NA	-8.67945
▁Hau	-8.68046
▁inguruko	-8.68131
▁jarduera	-8.68324
▁Zu	-8.68414
mar	-8.68448
mentu	-8.68711
▁diote	-8.68755
▁To	-8.68986
um	-8.69051
▁Te	-8.69438
▁erabilera	-8.69449
▁Estatu	-8.69703
▁como	-8.69819
▁horien	-8.69863
▁gal	-8.6987
erri	-8.69955
▁alderdi	-8.70055
▁X	-8.70273
mer	-8.70286
▁Ira	-8.70372
▁edozein	-8.70384
gel	-8.70424
▁igo	-8.7043
urre	-8.70499
▁sus	-8.70692
▁Foru	-8.70705
▁zion	-8.70769
hu	-8.70969
berri	-8.71046
▁Po	-8.71229
lak	-8.71302
▁Bar	-8.71306
fer	-8.71428
▁oro	-8.71475
ver	-8.7151
▁ekonomiko	-8.71653
▁aldiz	-8.71717
▁Erre	-8.71732
▁honako	-8.71754
txu	-8.71795
▁hilabete	-8.72159
▁Ze	-8.72172
▁Etxe	-8.72197
azio	-8.72398
▁etorri	-8.72407
▁die	-8.72429
▁fin	-8.72469
▁Ho	-8.72715
▁ikusten	-8.72771
▁Bere	-8.72812
LE	-8.72912
▁and	-8.73002
stra	-8.73139
▁hon	-8.73392
ezko	-8.73703
▁Lehen	-8.73835
ila	-8.73848
▁ego	-8.74137
▁Y	-8.74155
▁ku	-8.74238
▁Hon	-8.74471
▁arren	-8.74619
▁Gar	-8.74676
▁haren	-8.74705
▁osatu	-8.74773
▁proposamen	-8.74817
▁eredu	-8.74868
▁ezberdin	-8.74977
▁muga	-8.75025
▁cu	-8.75053
▁aurreko	-8.75229
▁Ro	-8.7532
▁Azken	-8.75436
rru	-8.75701
▁eraiki	-8.75961
▁lana	-8.76061
▁guztia	-8.76115
▁emango	-8.76241
xa	-8.76321
ng	-8.76447
▁bitartean	-8.76461
▁[	-8.76563
tur	-8.76575
▁non	-8.76577
▁Gure	-8.76656
sio	-8.77024
▁ohi	-8.77114
ratzen	-8.77129
▁sari	-8.77166
▁harreman	-8.77181
▁nor	-8.77192
▁Plan	-8.77215
▁iz	-8.77254
sten	-8.77416
▁saio	-8.77429
ika	-8.77527
ut	-8.77715
tek	-8.77745
▁Go	-8.77749
pres	-8.77796
▁ekintza	-8.77861
▁euskaraz	-8.77985
▁Lege	-8.78141
▁eskatzen	-8.78147
▁lur	-8.78163
▁Gainera	-8.78339
▁batetik	-8.78385
▁Espainiako	-8.78516
rrera	-8.78649
▁zenbat	-8.78797
ida	-8.78833
▁Co	-8.7891
lin	-8.79047
UR	-8.7919
▁kar	-8.79218
▁bana	-8.79398
ben	-8.79508
▁ekitaldi	-8.79723
▁Pro	-8.80035
▁berriak	-8.80233
ón	-8.80238
▁egongo	-8.80338
▁urteko	-8.80348
[	-8.80387
bat	-8.80474
por	-8.80576
▁produktu	-8.80676
▁haien	-8.80689
▁Orain	-8.80871
▁urtean	-8.80994
rte	-8.81285
▁aurka	-8.81339
▁heldu	-8.81349
▁Gobernu	-8.81473
▁sortzen	-8.81584
▁azter	-8.81766
▁inguru	-8.81827
▁Gaur	-8.81832
▁irakasle	-8.81891
tzailea	-8.81921
▁arrazoi	-8.81951
▁jai	-8.81953
▁Ta	-8.82256
tiva	-8.82267
▁Con	-8.82271
▁ge	-8.8237
▁adin	-8.82478
▁mota	-8.82523
▁aldatu	-8.8258
▁barruan	-8.82666
▁Euskara	-8.82732
tazio	-8.82821
KA	-8.8283
dako	-8.82944
rez	-8.83029
ji	-8.83193
▁sare	-8.8326
▁ematea	-8.8335
etxe	-8.83447
▁zeuden	-8.83731
ic	-8.83859
tzaileak	-8.83991
▁d	-8.84038
ego	-8.84175
–	-8.84251
▁ETA	-8.84431
cal	-8.84449
ron	-8.84458
▁bar	-8.84655
▁Gazte	-8.84678
▁arrisku	-8.847
▁Izan	-8.84783
cia	-8.84812
xu	-8.84851
lio	-8.84867
j	-8.84885
▁zegoen	-8.85014
keria	-8.85032
▁Herriko	-8.85102
ck	-8.85114
kur	-8.85153
▁esaten	-8.85168
▁moduan	-8.85476
ita	-8.8557
▁auzo	-8.8559
▁pres	-8.85618
▁informazio	-8.85796
zar	-8.85809
▁Bai	-8.85883
▁oraindik	-8.86018
ton	-8.86095
▁material	-8.86311
▁'	-8.86322
▁fa	-8.8635
▁kanpo	-8.86456
▁Egi	-8.86497
▁trans	-8.86547
beste	-8.86625
▁ad	-8.8683
▁mai	-8.87004
▁Berri	-8.87239
▁berria	-8.87296
▁ordezkari	-8.87426
▁ac	-8.87433
▁hezkuntza	-8.87473
zke	-8.87542
▁eu	-8.87623
▁bakarra	-8.87713
▁daitezke	-8.8779
ologia	-8.87869
▁jokatu	-8.88056
▁ekimen	-8.88115
▁Pe	-8.88179
▁fe	-8.88188
orde	-8.8821
▁lehenengo	-8.88275
▁min	-8.88293
pon	-8.88465
kizun	-8.8852
▁inter	-8.88523
▁na	-8.88644
▁baldin	-8.88697
▁Pi	-8.88722
▁berezi	-8.88917
bal	-8.88932
nik	-8.89009
▁ardura	-8.89351
▁garapen	-8.8944
▁irabazi	-8.89454
▁Ge	-8.89568
▁kalte	-8.89703
bera	-8.89761
{	-8.89848
▁Goi	-8.90048
▁estatu	-8.9022
▁Jose	-8.90479
▁herrialde	-8.90495
▁ondorio	-8.90615
ld	-8.90649
zale	-8.90678
DI	-8.90781
▁entre	-8.90829
bra	-8.90836
ados	-8.91174
entzako	-8.91189
tas	-8.9136
▁nagusia	-8.91477
▁duena	-8.91488
▁Txi	-8.9175
▁irakur	-8.91753
▁badu	-8.91826
che	-8.92013
▁beharreko	-8.92097
▁iritsi	-8.92155
▁Udalak	-8.92197
▁ugari	-8.92271
▁hartzeko	-8.9232
▁eskaintzen	-8.92659
▁profesional	-8.92798
▁gune	-8.9288
BA	-8.92907
▁dantza	-8.92998
▁joko	-8.93109
▁politika	-8.93157
▁argazki	-8.93227
▁pu	-8.93249
tara	-8.9326
▁behera	-8.93323
▁seme	-8.93511
▁gertatu	-8.93521
▁Ama	-8.93532
▁hasiera	-8.93629
▁ditzake	-8.93642
▁aipatu	-8.93738
▁obra	-8.93791
▁batzuetan	-8.93875
forma	-8.93902
▁Iru	-8.9401
▁eraman	-8.94087
▁ekarri	-8.94369
ment	-8.94519
▁ezaugarri	-8.94791
▁Talde	-8.94795
▁aldeko	-8.95125
▁este	-8.95213
▁zaie	-8.95334
tso	-8.95368
▁ezarri	-8.95444
katzeko	-8.95537
▁lurralde	-8.95613
etsi	-8.95751
sión	-8.95758
▁beharra	-8.95765
▁une	-8.96061
▁atal	-8.96108
▁mendi	-8.96121
ido	-8.96143
▁Sail	-8.96264
▁plaza	-8.96351
▁pri	-8.96415
RO	-8.96517
garriak	-8.96563
(	-8.96579
▁baliabide	-8.96616
▁ama	-8.96629
▁udalerri	-8.96869
▁Nafarroako	-8.96976
▁horrela	-8.96976
ino	-8.97095
▁Pre	-8.9736
▁Batzorde	-8.97361
ler	-8.97403
zioak	-8.97414
em	-8.97499
▁dezake	-8.97684
▁Un	-8.98083
cho	-8.98181
▁jabe	-8.98181
▁bakar	-8.98188
cer	-8.98418
▁asmo	-8.98489
▁Har	-8.98496
▁gabeko	-8.98644
▁dagoela	-8.98658
▁huts	-8.98703
▁handiagoa	-8.98732
▁Gipuzkoako	-8.98753
▁aldi	-8.98789
▁Jaurlaritza	-8.98869
▁argitaratu	-8.98913
plika	-8.98929
tzan	-8.98974
bai	-8.98985
▁ordez	-8.98995
▁hartuta	-8.99048
▁larri	-8.99094
ie	-8.99198
▁R	-8.99241
▁historia	-8.99407
tzaren	-8.99451
▁helburua	-8.99647
mun	-8.99824
▁datu	-9.00014
▁gainean	-9.00104
▁dagokionez	-9.00125
bizi	-9.00278
▁zor	-9.005
TI	-9.00539
tivo	-9.00556
▁lagundu	-9.0065
toki	-9.00756
▁zan	-9.00798
▁testu	-9.00852
▁ona	-9.00912
▁administrazio	-9.00981
▁ai	-9.01133
▁Au	-9.01187
▁Fi	-9.01326
ll	-9.01401
▁konta	-9.01434
IA	-9.01475
▁ordea	-9.01515
▁orduan	-9.01847
▁Europako	-9.0192
▁hurrengo	-9.02022
▁batekin	-9.02023
▁kultura	-9.02182
▁aurkitu	-9.02298
▁On	-9.02349
▁Gizarte	-9.02395
▁euren	-9.02429
▁ap	-9.02489
▁hartuko	-9.02493
▁Ra	-9.02497
▁informazioa	-9.02827
▁galdu	-9.02908
▁gertatzen	-9.02962
▁hu	-9.02979
mina	-9.03013
▁labur	-9.03051
▁berdin	-9.03088
rantz	-9.03098
▁amaitu	-9.03112
ker	-9.03181
tatzen	-9.03203
▁aurkako	-9.03355
aldeko	-9.03356
EZ	-9.03416
▁Hezkuntza	-9.03428
arazi	-9.03452
▁dizu	-9.03507
garren	-9.03594
▁prest	-9.0371
▁sektore	-9.0389
▁Mai	-9.0408
aldean	-9.0418
▁ibilbide	-9.04209
mendi	-9.04382
▁Elkarte	-9.04488
cio	-9.04489
+	-9.04588
▁burua	-9.04613
tsua	-9.04643
tatzeko	-9.04688
▁geratu	-9.04709
▁berak	-9.04741
tikoa	-9.04754
▁zehatz	-9.048
izazio	-9.05001
eus	-9.0501
▁erro	-9.05072
▁Bas	-9.05302
):	-9.0537
",	-9.054
▁Juan	-9.05513
inu	-9.0557
▁pare	-9.0558
GA	-9.05772
▁ezarritako	-9.05794
▁gau	-9.05825
▁Beraz	-9.05857
▁giza	-9.05998
▁gogor	-9.06095
pro	-9.06105
▁com	-9.06133
▁ikerketa	-9.06143
▁aztertu	-9.06222
▁interes	-9.06231
tak	-9.06325
TZA	-9.06376
▁lanean	-9.06448
▁senti	-9.06506
DU	-9.0652
.–	-9.06709
▁bir	-9.06726
▁azpi	-9.06753
BE	-9.06756
▁zuzendari	-9.06761
▁aldera	-9.06781
arri	-9.06789
▁tarte	-9.07037
los	-9.07045
tasunaren	-9.07098
TO	-9.07177
▁edota	-9.07324
);	-9.07326
▁bitartez	-9.07551
dor	-9.07723
bre	-9.07736
▁Bu	-9.0775
ine	-9.07767
SA	-9.07889
▁hurbil	-9.08179
▁litzateke	-9.08195
rraren	-9.08273
▁deitu	-9.08298
lor	-9.08308
▁nabarmen	-9.08489
agatik	-9.08511
▁besteak	-9.08545
▁milioi	-9.08655
▁zuela	-9.08768
ju	-9.08821
▁hartzea	-9.08922
▁He	-9.08988
MA	-9.09006
▁bost	-9.09035
gorri	-9.09124
ian	-9.09162
▁eztabaida	-9.09206
▁idaz	-9.09261
▁ikastetxe	-9.09297
▁goi	-9.09318
pean	-9.094
▁garrantzitsu	-9.09478
▁espe	-9.09482
mento	-9.09743
▁agertzen	-9.0978
LA	-9.09854
▁film	-9.09981
▁Lu	-9.10165
▁aho	-9.10198
▁biztanle	-9.10261
▁gobernu	-9.10328
▁Administrazio	-9.10333
tic	-9.10334
▁taldeak	-9.10373
▁Ikus	-9.10401
X	-9.10417
▁gerta	-9.10538
▁tresna	-9.1056
▁agertu	-9.10805
▁man	-9.10836
▁baimen	-9.1084
GU	-9.1092
▁...	-9.11018
▁gaitasun	-9.11107
▁im	-9.11202
▁Donostia	-9.11229
▁barru	-9.11273
▁artikulu	-9.11322
bia	-9.11343
▁horretarako	-9.11404
til	-9.1145
▁lortzeko	-9.11518
▁zerbait	-9.11736
tzako	-9.11736
▁final	-9.11764
erre	-9.11817
▁txosten	-9.1182
▁gida	-9.11843
▁Ai	-9.11887
▁lanak	-9.11932
talde	-9.11958
▁baldintza	-9.11992
▁zabaldu	-9.12004
▁delako	-9.1207
ntes	-9.12267
▁LA	-9.12511
▁berriro	-9.12681
▁euskaldun	-9.12688
▁bisita	-9.12762
llo	-9.12772
▁bultza	-9.12936
ec	-9.12962
▁egiazta	-9.13011
uz	-9.13015
▁funtzio	-9.13082
▁Gai	-9.13096
ario	-9.1322
▁kalitate	-9.13301
▁badira	-9.13305
tzo	-9.13353
▁digu	-9.13417
iar	-9.13418
pide	-9.13427
zabal	-9.13439
▁poli	-9.13467
▁Du	-9.13527
▁aritu	-9.13563
car	-9.13611
▁egitura	-9.13732
▁erra	-9.13813
arrak	-9.13823
ontzi	-9.13899
ple	-9.14092
▁etxebizitza	-9.14092
▁borroka	-9.14145
▁are	-9.14204
▁pertsonal	-9.1428
▁nik	-9.14322
AS	-9.14335
▁Sal	-9.14369
fu	-9.1437
EL	-9.1446
itza	-9.14661
natu	-9.14707
▁mailako	-9.14809
▁aurrekontu	-9.14828
▁ziur	-9.14903
▁eba	-9.15014
▁iker	-9.1505
▁iritzi	-9.15052
▁ustez	-9.15135
ERA	-9.15233
▁arreta	-9.15327
gana	-9.15348
est	-9.15432
dore	-9.15465
▁baitu	-9.15499
▁jasotzen	-9.15539
dro	-9.15694
▁omen	-9.15792
▁luke	-9.15988
kako	-9.16016
▁herriko	-9.16059
▁zerrenda	-9.16061
▁ibil	-9.16079
▁Hor	-9.162
▁jauna	-9.16227
▁sail	-9.16251
▁zerga	-9.16253
Q	-9.16266
▁baizik	-9.16266
▁zitzai	-9.16459
▁etorkizun	-9.1666
▁bereiz	-9.16797
▁proba	-9.16896
pin	-9.16904
▁artikulua	-9.16946
▁Urte	-9.16964
▁metro	-9.17021
op	-9.17025
▁Si	-9.1703
▁Las	-9.17152
OS	-9.1718
retan	-9.17237
▁ume	-9.17326
▁hamar	-9.17455
▁eskualde	-9.1756
tel	-9.17561
▁neur	-9.17572
▁itxi	-9.17627
▁Gor	-9.17646
UN	-9.1766
cción	-9.17774
ü	-9.18246
mas	-9.18315
▁guztien	-9.18325
▁denean	-9.18373
▁Ku	-9.18392
lagun	-9.18402
▁jaio	-9.18421
▁zehaztu	-9.1849
IZ	-9.18498
▁ikuspegi	-9.18536
▁Nola	-9.18543
nomi	-9.18603
turik	-9.18684
▁ordain	-9.18727
▁horri	-9.18789
▁comp	-9.18932
▁Kan	-9.1898
porta	-9.19013
ç	-9.19036
▁hirugarren	-9.19139
▁Hi	-9.19273
▁eskaera	-9.19384
▁ohiko	-9.19599
▁bero	-9.19646
▁bota	-9.19733
▁Zerbitzu	-9.19749
▁eskaini	-9.19808
▁w	-9.19902
▁kasuan	-9.19905
▁Aran	-9.19907
▁zenbaki	-9.20059
tela	-9.20178
GO	-9.20179
hartze	-9.20224
▁zail	-9.20231
▁esparru	-9.20232
▁falta	-9.20287
▁parti	-9.20313
sia	-9.20391
_	-9.20412
des	-9.20454
▁nintzen	-9.20525
tse	-9.20531
son	-9.20727
▁ia	-9.20947
rezko	-9.20953
▁adieraz	-9.21327
▁eskura	-9.21363
ix	-9.21428
▁amaiera	-9.21474
▁lehia	-9.21552
bri	-9.21554
▁hura	-9.21691
▁Eu	-9.21735
ilu	-9.22058
▁igaro	-9.22092
▁kudeaketa	-9.22128
▁espazio	-9.22282
▁osatzen	-9.22322
▁Nagusi	-9.22524
▁ate	-9.22539
gile	-9.22549
▁kultur	-9.22552
▁guraso	-9.226
▁natural	-9.2266
▁jartzen	-9.22705
▁Unibertsitate	-9.22779
tx	-9.22996
▁Aste	-9.23013
bait	-9.2312
▁komun	-9.23206
▁ibili	-9.23394
▁zahar	-9.23646
▁bereziki	-9.23706
IT	-9.23722
goi	-9.23795
▁esperientzia	-9.23816
bli	-9.23829
▁betetzen	-9.23895
▁jan	-9.23928
▁defini	-9.23933
▁más	-9.23979
niko	-9.2416
▁erakutsi	-9.2416
gal	-9.24286
▁dituzu	-9.24363
▁berr	-9.24379
tzain	-9.24464
bert	-9.24494
izatu	-9.24533
sku	-9.24603
▁Eskola	-9.24618
▁egia	-9.2467
▁agindu	-9.24683
▁gutxiago	-9.24756
▁Kar	-9.24907
gui	-9.24909
bete	-9.25047
▁ezer	-9.25181
▁ten	-9.25231
▁kopurua	-9.2531
▁ageri	-9.25478
▁par	-9.2554
▁itzuli	-9.25581
▁kan	-9.25607
▁Bigarren	-9.25613
ondo	-9.25656
zue	-9.25741
▁gorputz	-9.25786
ster	-9.25837
spe	-9.25862
ordina	-9.25877
nas	-9.25896
yo	-9.25911
SO	-9.25952
pain	-9.25995
▁sei	-9.26064
▁eskubidea	-9.26174
teria	-9.26285
▁Bat	-9.26354
▁ezagun	-9.26365
cas	-9.26478
▁informa	-9.26536
}	-9.26539
▁harri	-9.26664
dad	-9.26694
▁segurtasun	-9.26726
▁dagokion	-9.26781
▁erabiltzaile	-9.26874
▁berezia	-9.26927
▁txi	-9.27082
▁egungo	-9.27218
▁emandako	-9.27299
rei	-9.27328
▁gorde	-9.27328
lazio	-9.27341
▁mugimendu	-9.27358
▁elementu	-9.27409
▁badago	-9.27509
▁bazter	-9.27673
▁garrantzitsua	-9.27751
sai	-9.27781
▁onena	-9.27916
raino	-9.27918
alaba	-9.28028
kapen	-9.28031
ría	-9.2804
▁Gipuzkoa	-9.28068
▁eraso	-9.28222
sh	-9.28228
▁ordaindu	-9.28282
▁sakon	-9.28461
▁eragile	-9.28464
▁ostean	-9.285
ist	-9.28635
ipa	-9.28637
▁beharrezkoa	-9.28666
hai	-9.28823
rek	-9.28825
▁Elkar	-9.28826
▁energia	-9.28856
▁bakoitzak	-9.28857
▁soilik	-9.28866
▁Ordu	-9.28896
SE	-9.28932
▁uda	-9.28976
▁ezagutu	-9.2899
▁guztietan	-9.29084
▁jardun	-9.29167
▁Man	-9.29226
▁sarrera	-9.29313
▁gas	-9.29418
▁identifika	-9.29481
ldu	-9.2964
▁entzun	-9.29723
▁gaude	-9.29729
▁Gal	-9.29744
DE	-9.29898
zioaren	-9.2993
▁askotan	-9.29959
▁bestelako	-9.29996
prob	-9.30063
istak	-9.30271
▁Ni	-9.30292
▁finantza	-9.30318
▁\	-9.3035
ger	-9.30371
part	-9.30494
cul	-9.30591
EA	-9.30688
▁Bildu	-9.30792
▁hel	-9.30797
▁Horrela	-9.30825
▁Bide	-9.30842
▁bihurtu	-9.30866
labor	-9.30993
iru	-9.31006
▁ginen	-9.31151
teke	-9.31184
▁mantentze	-9.31245
▁ezagutzen	-9.3138
▁merkatu	-9.31395
▁eraikin	-9.31402
▁begi	-9.3143
AREN	-9.31453
lega	-9.3148
▁guztiek	-9.31551
liza	-9.31654
▁adibidez	-9.31793
tasunak	-9.31807
▁besterik	-9.31816
▁zeu	-9.31927
cre	-9.31939
▁bati	-9.31971
▁dau	-9.32097
nes	-9.32323
ry	-9.32401
▁ehun	-9.3258
▁eragiten	-9.32586
bol	-9.32701
▁Frantzia	-9.32759
urrun	-9.32902
▁Bestalde	-9.32972
tación	-9.3298
ces	-9.33015
▁atzera	-9.33074
▁abiatu	-9.33083
▁Emakume	-9.33119
▁itzul	-9.3329
▁Bal	-9.33308
for	-9.33323
uri	-9.33328
▁txapelketa	-9.33533
KI	-9.33536
cion	-9.33644
rreta	-9.33676
hal	-9.33702
▁Bizkaiko	-9.33761
▁jar	-9.33779
▁tri	-9.33796
▁tekniko	-9.33867
ifika	-9.33878
▁Mendi	-9.33904
▁Lau	-9.34008
ill	-9.34013
▁batzuek	-9.34044
▁EH	-9.34062
▁ideia	-9.34162
dra	-9.34176
▁batzuen	-9.34259
▁Euskadi	-9.34263
▁antzeko	-9.34281
▁webgune	-9.34363
▁gaineko	-9.34403
▁pla	-9.34439
▁apar	-9.34549
▁ger	-9.34722
DO	-9.3473
kete	-9.34763
ezin	-9.34824
▁Hiri	-9.34859
▁jakinarazi	-9.35012
▁integra	-9.35219
nder	-9.35344
▁Tra	-9.35366
▁bihur	-9.35568
▁goza	-9.35608
▁And	-9.35613
degi	-9.35651
GI	-9.35653
ros	-9.35685
▁Osasun	-9.35767
▁dituela	-9.35803
TX	-9.36
▁sobre	-9.36098
▁ikasi	-9.361
▁bidaia	-9.362
▁bilera	-9.3622
zial	-9.36224
▁martxan	-9.36244
▁esate	-9.36285
barre	-9.36345
ier	-9.3635
...)	-9.36386
▁ob	-9.36592
▁zara	-9.36626
▁bal	-9.36662
▁Aurre	-9.36704
▁Txa	-9.3674
▁guztiz	-9.36763
▁uler	-9.36772
▁giro	-9.36786
▁erabat	-9.36962
▁jarrera	-9.36968
▁partida	-9.37007
▁galdera	-9.37177
▁oin	-9.37183
▁for	-9.37322
▁etor	-9.37412
▁gainerako	-9.37418
▁azterketa	-9.37432
iti	-9.37479
▁Gi	-9.37485
▁adierazten	-9.37523
▁genero	-9.37539
▁bideo	-9.37583
▁Nor	-9.3768
tzearen	-9.3781
dal	-9.37857
mes	-9.37959
▁Esku	-9.38069
▁ikastaro	-9.38113
alitate	-9.38151
▁ditugun	-9.38151
ñ	-9.38193
▁bali	-9.38212
▁teknika	-9.38233
ikus	-9.38235
▁alkate	-9.38331
▁abenduaren	-9.38495
▁elektroniko	-9.38545
▁ofizial	-9.38653
▁duzun	-9.38668
▁erabil	-9.38688
▁Per	-9.38712
ologiko	-9.38754
lde	-9.38891
ex	-9.39043
puesto	-9.39163
▁marka	-9.39246
▁etxean	-9.3932
▁ohar	-9.39338
▁konpromiso	-9.39343
legi	-9.39424
▁pertsonen	-9.39432
▁aldetik	-9.39533
▁aita	-9.39586
duc	-9.39603
▁Ad	-9.39608
▁deialdi	-9.39608
▁geldi	-9.39658
▁Pu	-9.39666
▁fisiko	-9.39716
RIA	-9.39719
ncia	-9.39726
intza	-9.39764
▁Horregatik	-9.39768
CO	-9.39794
SI	-9.39818
▁jolas	-9.3984
%	-9.39879
katzea	-9.39968
▁datuak	-9.40022
▁kontrola	-9.40045
▁emaitza	-9.40097
▁azkar	-9.40198
tzeak	-9.40505
▁baterako	-9.40529
▁jarraitzen	-9.40529
▁Por	-9.40558
▁zirela	-9.40576
▁inor	-9.40771
▁ser	-9.40787
▁kokatu	-9.40791
▁orokorra	-9.40925
▁oinarrizko	-9.40966
▁Erkidego	-9.41192
egu	-9.41273
▁Bilbo	-9.41278
▁pribatu	-9.41308
LO	-9.41365
IO	-9.41423
▁kontratu	-9.41485
▁artist	-9.41499
▁bitarteko	-9.41535
=	-9.41556
LI	-9.41655
▁gertu	-9.41668
▁Gero	-9.41737
▁lehiaketa	-9.41737
▁aplikazio	-9.41811
▁ordena	-9.41921
posa	-9.41963
▁duenez	-9.42205
▁zentro	-9.42207
ifica	-9.42275
retara	-9.42381
kunde	-9.42467
engatik	-9.42565
▁arduradun	-9.42569
ite	-9.42602
▁izeneko	-9.42692
▁Bizi	-9.42695
▁landu	-9.42794
▁famili	-9.42945
▁banatu	-9.42953
▁urteetan	-9.43116
▁The	-9.43337
BI	-9.43375
▁arratsalde	-9.43377
▁horietan	-9.43384
\	-9.43437
▁Kontseilu	-9.4368
▁Arau	-9.43752
▁galde	-9.43754
▁Batu	-9.43926
▁egotea	-9.43926
▁gastu	-9.43936
▁‘	-9.44094
▁bidali	-9.44113
US	-9.44211
▁km	-9.44249
▁joka	-9.44251
ZA	-9.44328
▁goiz	-9.44337
▁legez	-9.44346
▁medi	-9.44444
▁sendo	-9.44522
▁Arra	-9.44532
▁auzi	-9.44872
segur	-9.44899
skriba	-9.44975
▁azal	-9.44984
▁Mundu	-9.44989
tiba	-9.44994
▁neska	-9.45071
posizio	-9.45119
▁Oso	-9.45163
▁rec	-9.45166
▁kolore	-9.4517
▁herritarren	-9.45318
esti	-9.45332
▁erakusten	-9.45355
▁epai	-9.45402
▁ingurumen	-9.45412
▁prezio	-9.45452
▁inoiz	-9.45454
▁herritar	-9.45471
▁ongi	-9.45552
▁mahai	-9.4558
▁Hu	-9.45645
NE	-9.45784
▁baditu	-9.45787
▁Espainia	-9.45789
biltza	-9.45828
latu	-9.45837
garritasun	-9.4592
▁prestatu	-9.45962
▁zalantza	-9.46019
maila	-9.46049
just	-9.46061
▁prestakuntza	-9.46078
ré	-9.46151
▁zait	-9.4617
kortasun	-9.46192
lore	-9.46263
▁indarrean	-9.46352
▁prozedura	-9.46353
▁handiko	-9.46515
grafiko	-9.4657
▁zioten	-9.46579
▁kanpoko	-9.46669
▁garatu	-9.4668
mini	-9.46739
▁sartzen	-9.46808
▁elkarrizketa	-9.46892
▁minutu	-9.46926
arekiko	-9.46936
▁eder	-9.46945
▁boto	-9.46951
▁abar	-9.46992
án	-9.47141
▁Autonomia	-9.47206
zaro	-9.47439
▁pentsa	-9.4747
▁san	-9.47493
▁egunean	-9.47544
ard	-9.47594
▁sar	-9.47608
NT	-9.47685
▁ahalegin	-9.4776
Ar	-9.47803
▁halako	-9.47827
EK	-9.48055
▁Bizkaia	-9.48104
▁komunikazio	-9.48182
▁irizpide	-9.48201
▁Horretarako	-9.48201
ire	-9.48264
peri	-9.48398
text	-9.48422
▁osoan	-9.48432
Y	-9.48439
▁fase	-9.48465
▁Jai	-9.48548
▁II	-9.48659
▁arma	-9.48839
▁Martin	-9.48894
▁bezalako	-9.4892
▁kontzertu	-9.48948
▁zuri	-9.49064
zketa	-9.4908
▁bertako	-9.4924
mb	-9.49286
rán	-9.4933
laritza	-9.49358
agoak	-9.49455
torio	-9.49538
▁atzo	-9.49558
▁lankidetza	-9.4963
▁kolektibo	-9.49701
HA	-9.49716
▁inc	-9.49773
▁izanik	-9.49838
▁lotutako	-9.4987
oli	-9.49879
zala	-9.49915
tzeari	-9.50031
|	-9.50071
▁Erakunde	-9.50149
▁izaera	-9.5018
IK	-9.50182
▁ekarpen	-9.50205
rentzat	-9.50298
▁todo	-9.50432
izar	-9.50444
▁dokumentu	-9.50697
▁erakus	-9.50828
▁Ti	-9.50828
\(	-9.50851
▁xede	-9.50965
▁jotzen	-9.51035
▁Fran	-9.51066
▁aurten	-9.51094
edo	-9.51107
aldian	-9.51109
▁ote	-9.5111
▁zaigu	-9.51122
▁handiena	-9.51185
▁Sar	-9.51221
▁lotura	-9.51235
▁izate	-9.51275
▁hasiko	-9.51538
▁digital	-9.51805
▁zigor	-9.51889
ly	-9.51921
▁euroko	-9.51925
▁Kirol	-9.51931
▁bertso	-9.5201
▁Lagun	-9.52042
keten	-9.52131
arentzat	-9.52227
▁libre	-9.5224
▁arro	-9.52275
▁ezinbesteko	-9.52325
▁contra	-9.52414
ñe	-9.52495
▁aldarri	-9.52505
eros	-9.52679
▁diete	-9.52741
▁mezu	-9.52772
▁kilometro	-9.52834
▁eginez	-9.52846
▁Dekretu	-9.52873
▁akordio	-9.52873
▁ekonomia	-9.52967
▁postu	-9.53003
▁erabiltzea	-9.53018
▁baserri	-9.53106
▁horni	-9.53121
sun	-9.53248
▁Ola	-9.53252
▁industria	-9.53319
▁Bel	-9.53371
▁bakoitza	-9.53401
▁fun	-9.53432
▁hauetan	-9.53445
▁Euskadiko	-9.53565
zun	-9.53618
▁ekainaren	-9.5363
▁Joan	-9.53917
▁Ri	-9.53953
▁honetako	-9.54076
▁azaroaren	-9.54097
▁hari	-9.54134
▁altu	-9.54144
▁batzorde	-9.54176
tzale	-9.54227
TZE	-9.54239
▁duzue	-9.54294
▁ditut	-9.54344
▁idazle	-9.5436
opera	-9.54368
▁Nik	-9.54408
▁presidente	-9.5464
erra	-9.54647
▁jarriko	-9.5468
▁aplikatu	-9.54694
posi	-9.54718
▁Com	-9.54812
▁bihar	-9.54836
tarra	-9.54981
ketaren	-9.55031
▁normal	-9.55093
▁caso	-9.55109
▁neurriak	-9.55213
pel	-9.5532
post	-9.55339
▁interesa	-9.55386
▁nagusiak	-9.5542
cional	-9.55425
▁emakumeen	-9.55595
▁kendu	-9.55605
▁enpresak	-9.55621
▁nabarmendu	-9.55675
ctor	-9.55757
terio	-9.55764
▁euskararen	-9.55812
▁errege	-9.5585
▁horietako	-9.56005
▁baduzu	-9.56038
▁laguntzen	-9.56147
▁Europa	-9.56202
tzaileen	-9.56222
▁Kultura	-9.56354
sail	-9.56359
▁bikote	-9.56443
▁Haur	-9.56579
▁Bil	-9.56682
▁aktibo	-9.56719
RRE	-9.5672
▁hartan	-9.56736
és	-9.56814
▁aitor	-9.56816
▁onar	-9.56844
▁preso	-9.57203
▁ezker	-9.57246
>	-9.57277
▁Mikel	-9.57283
▁Horren	-9.57284
▁beharrezko	-9.57306
▁urriaren	-9.57331
▁historiko	-9.57358
▁garrantzia	-9.57422
pur	-9.57465
▁Inter	-9.57526
▁Cu	-9.57639
presio	-9.57693
▁aurki	-9.57728
REN	-9.57763
▁sortzeko	-9.57863
IL	-9.57937
erta	-9.57945
▁€	-9.57966
▁ezartzen	-9.58065
▁errealitate	-9.58067
▁argitara	-9.5809
▁egoitza	-9.5813
MEN	-9.58133
▁sexu	-9.58168
▁erakusketa	-9.58168
▁nazioarteko	-9.58258
▁ezik	-9.58284
▁etxeko	-9.58359
▁kezka	-9.58467
▁kontrako	-9.58467
▁Alde	-9.58484
indu	-9.58511
▁Nafarroa	-9.58525
▁telefono	-9.58745
rela	-9.58757
tarte	-9.58797
cial	-9.58801
▁biltzen	-9.5886
▁Gra	-9.58939
AZ	-9.59009
NO	-9.59039
▁proposatu	-9.59049
▁Eska	-9.59106
▁kanta	-9.59194
▁jasotako	-9.59204
▁gutxienez	-9.59281
▁lotu	-9.59366
urra	-9.59417
▁aukeratu	-9.596
▁Hiru	-9.59659
▁beldur	-9.59668
▁guk	-9.59728
▁animali	-9.5975
▁aurrez	-9.59882
▁Ikas	-9.59885
pre	-9.59904
▁positibo	-9.59932
▁buelta	-9.59937
▁hitzarmen	-9.60042
▁dugula	-9.60059
▁jada	-9.60148
▁berreskura	-9.60165
▁zuzendu	-9.60175
▁Zor	-9.60243
hor	-9.6032
▁bukatu	-9.60363
▁bateko	-9.6045
▁Madril	-9.60578
▁eskumen	-9.60743
▁adibide	-9.60892
▁Ru	-9.60909
han	-9.60965
▁alegia	-9.61005
▁izandako	-9.61008
▁Des	-9.61024
zteko	-9.61058
▁bideratu	-9.61074
▁irakurri	-9.61083
▁aire	-9.6116
▁lehenago	-9.61171
PA	-9.61183
▁dakar	-9.61255
▁jartzea	-9.61279
▁igande	-9.61327
▁dezakete	-9.61335
▁bio	-9.61362
▁af	-9.61387
▁Donostiako	-9.61479
▁Auto	-9.61603
▁bikain	-9.61678
▁gelditu	-9.61864
▁baldintzak	-9.61893
té	-9.61913
▁sortutako	-9.62112
▁estal	-9.62203
toria	-9.62205
▁entzute	-9.62247
▁betiko	-9.62363
▁agiri	-9.62376
▁instalazio	-9.62456
▁etengabe	-9.62518
▁azaltzen	-9.62605
▁Mon	-9.62646
▁ondorengo	-9.62673
▁maiatzaren	-9.62743
▁Jon	-9.62779
▁martxoaren	-9.62913
ifikazio	-9.63014
▁espero	-9.63209
▁bezero	-9.63211
▁Vasco	-9.63223
laguntza	-9.63244
▁dakit	-9.63318
▁pertsonak	-9.63494
▁Jaun	-9.63524
▁realiza	-9.63536
ografia	-9.63617
hat	-9.63637
▁web	-9.63724
▁día	-9.63765
▁Ipar	-9.6378
▁Je	-9.64128
▁gela	-9.64154
▁zuzenean	-9.64186
▁am	-9.64271
▁diogu	-9.64294
▁Eliz	-9.64309
▁kontzeptu	-9.6435
▁Ondoren	-9.64397
▁kopuru	-9.64415
orri	-9.64443
▁Herrian	-9.6446
▁itxura	-9.64501
▁paper	-9.6454
▁EAJ	-9.64639
▁horrelako	-9.64719
▁dituztela	-9.64721
pli	-9.64733
▁dadin	-9.64825
fra	-9.64826
CA	-9.64832
▁datorren	-9.64865
▁zutela	-9.64889
▁bakoitzean	-9.64997
▁Erro	-9.65092
▁personas	-9.65144
▁eskaintza	-9.65162
▁indarkeria	-9.65195
zon	-9.65227
▁erru	-9.65248
W	-9.65256
▁adierazpen	-9.65329
rí	-9.65372
hartzaile	-9.65437
▁Arte	-9.65444
▁Car	-9.65706
▁trata	-9.65715
▁dudan	-9.65741
mani	-9.65771
▁mila	-9.658
▁hasieran	-9.65903
▁aldizkari	-9.65911
▁ezagutza	-9.65978
▁hondakin	-9.66057
MI	-9.66057
▁EAE	-9.66084
▁orri	-9.66268
▁Diru	-9.66343
▁froga	-9.66528
▁Bada	-9.66632
▁bidal	-9.66779
tsio	-9.66806
metro	-9.66833
▁posible	-9.66834
▁teknologia	-9.66867
▁saiatu	-9.66888
▁estrategia	-9.66922
tzaileek	-9.66955
▁Sor	-9.66969
▁jartzeko	-9.67182
▁hamarkada	-9.67235
▁zirku	-9.67359
▁zentzu	-9.67379
▁Espa	-9.67406
▁praktika	-9.67408
NI	-9.67491
itario	-9.6756
▁gerra	-9.6759
▁estu	-9.6761
Gasteiz	-9.67731
▁komunitate	-9.67811
▁lortzen	-9.67985
▁Iruñe	-9.68064
▁Jaurlaritzak	-9.68105
▁ibai	-9.68173
bio	-9.68219
▁kanpaina	-9.68249
▁propio	-9.68321
▁premi	-9.68345
▁partaide	-9.68404
sistema	-9.68412
▁Zure	-9.68458
▁arrakasta	-9.68539
▁araudi	-9.68569
▁inf	-9.68762
▁Legebiltzar	-9.68769
▁sub	-9.68791
▁artikuluan	-9.68827
▁hitzaldi	-9.68874
zain	-9.68979
mili	-9.69006
▁lanpostu	-9.69018
iñ	-9.69045
▁lotuta	-9.6923
▁uztailaren	-9.69373
▁egokitu	-9.69539
▁eskainiko	-9.69659
▁bezain	-9.69668
HI	-9.69706
▁dator	-9.69715
chi	-9.69732
▁Bilboko	-9.69784
▁pixka	-9.69799
▁Garai	-9.6981
▁indarra	-9.69871
iendo	-9.69909
▁desager	-9.69972
fon	-9.69973
▁bakoitzaren	-9.69984
▁daudela	-9.70125
▁Egu	-9.70285
▁juridiko	-9.70288
▁denez	-9.70371
▁Musika	-9.70385
▁maite	-9.70719
▁uzten	-9.70732
▁Izen	-9.70742
RU	-9.70864
▁ibilgailu	-9.70868
▁For	-9.70925
▁Bertan	-9.70959
AU	-9.71011
▁Val	-9.7102
▁ikusteko	-9.71048
▁urrats	-9.71423
▁Fu	-9.71426
erdi	-9.71458
▁plazan	-9.71489
▁eskuratu	-9.716
tarrak	-9.7161
▁Hitz	-9.71625
tario	-9.71855
▁aholku	-9.71869
▁aipatzen	-9.71933
▁Esta	-9.71973
▁Poli	-9.72064
▁onartzen	-9.72125
▁Her	-9.72215
▁ospatu	-9.72335
▁osagarri	-9.72347
xka	-9.72382
▁benetan	-9.7249
▁lerro	-9.72523
▁pilota	-9.72533
▁Los	-9.72541
▁multzo	-9.72583
▁momentu	-9.72587
▁apirilaren	-9.72629
▁administra	-9.72642
ph	-9.72657
▁Argi	-9.72666
▁sailburu	-9.72675
▁elkarrekin	-9.72766
▁fue	-9.72793
▁eguneroko	-9.72939
▁Nire	-9.73161
▁Guzti	-9.73183
▁gauzak	-9.73195
rralde	-9.73203
▁Zerga	-9.73207
▁Lurralde	-9.73266
IS	-9.73288
▁Luis	-9.73342
▁Ki	-9.73396
▁Tolosa	-9.73465
▁horrekin	-9.73474
▁jatorri	-9.73497
com	-9.73634
▁unibertsitate	-9.73726
tribu	-9.73729
▁izendatu	-9.73739
▁gehitu	-9.73922
▁Espe	-9.7399
lí	-9.74011
▁benetako	-9.7403
▁Aurten	-9.74065
▁gaixotasun	-9.74069
▁edizio	-9.74145
▁askoz	-9.74188
▁haiek	-9.74197
▁noiz	-9.74228
▁gaitu	-9.74441
▁tailer	-9.74481
▁funtsezko	-9.74515
▁sol	-9.74529
▁tratamendu	-9.74562
▁sortzea	-9.746
▁oker	-9.74771
▁itsaso	-9.74934
forme	-9.74955
kula	-9.74972
▁Publiko	-9.7501
▁hauteskunde	-9.75073
▁lehendakari	-9.75106
▁Jesus	-9.75155
▁enplegu	-9.75185
misio	-9.75204
▁geratzen	-9.75253
▁kontsulta	-9.75377
▁laguntzeko	-9.7539
▁erabiltzeko	-9.75392
rse	-9.75428
▁azpimarratu	-9.7544
▁eraikuntza	-9.7549
▁berdintasun	-9.7556
▁ager	-9.75588
emate	-9.757
▁Kultur	-9.75754
IC	-9.7581
▁dezakezu	-9.75907
▁Proiektu	-9.75955
▁mugikor	-9.75959
ordu	-9.75962
▁bultzatu	-9.76003
▁Arabako	-9.76149
▁Santa	-9.76229
▁dizkio	-9.76235
▁hobetzeko	-9.76298
▁badute	-9.7631
▁itsas	-9.76429
▁krisi	-9.76491
▁Aurreko	-9.76502
▁daitezkeen	-9.76526
▁Hemen	-9.76545
▁Zabal	-9.76555
aldaketa	-9.76561
▁iraunkor	-9.76588
KU	-9.76773
▁interesgarri	-9.76923
plan	-9.76949
▁ekar	-9.77053
▁mailan	-9.77056
▁salatu	-9.77309
fil	-9.77312
▁bakoitzeko	-9.77481
▁erabiliz	-9.7756
▁Pla	-9.77571
▁urri	-9.77665
▁organo	-9.77744
gram	-9.77777
▁orokor	-9.77841
▁dagokienez	-9.77891
▁egitasmo	-9.78088
▁honi	-9.78162
▁zortzi	-9.78185
▁garen	-9.78188
▁erronka	-9.78201
▁urtetik	-9.78234
▁saihes	-9.78236
UA	-9.78352
▁erreferentzia	-9.78474
▁ikasturte	-9.78501
▁darama	-9.78569
▁pentsatu	-9.78599
▁aurkezpen	-9.78716
ff	-9.78905
▁sinatu	-9.78907
▁banaketa	-9.78953
▁askatasun	-9.78994
ME	-9.79197
▁sartzeko	-9.79201
▁dagoeneko	-9.79202
entes	-9.79208
pul	-9.79255
▁egile	-9.79291
▁horregatik	-9.79413
▁servicio	-9.79496
▁denboraldi	-9.79556
▁tren	-9.79565
▁aditu	-9.79566
ieraz	-9.79573
ARI	-9.79608
ST	-9.79744
▁atxiki	-9.79819
▁anima	-9.79883
▁irailaren	-9.79899
miti	-9.79904
▁garraio	-9.80015
▁hasita	-9.80087
▁Horrek	-9.80152
▁biktim	-9.80184
ezagu	-9.80203
▁emanaldi	-9.8025
▁hobeto	-9.80255
▁jarduerak	-9.80341
▁botere	-9.80379
▁Txapelketa	-9.80385
▁lasai	-9.80587
▁kate	-9.80808
▁Lur	-9.80837
▁txartel	-9.80839
▁literatura	-9.80942
puesta	-9.80987
▁urtarrilaren	-9.81121
▁beltz	-9.81144
▁gizaki	-9.81147
▁egitera	-9.81419
▁instala	-9.81483
ZU	-9.81492
▁joera	-9.81495
▁Batzar	-9.81516
tzetan	-9.8158
▁anitz	-9.81632
ferentzia	-9.8174
▁iturri	-9.81824
▁Horrez	-9.81893
▁ekoizpen	-9.81912
▁betebehar	-9.81917
▁jarduer	-9.82001
▁iruditzen	-9.82011
▁laster	-9.82054
▁foru	-9.82067
▁ondasun	-9.82083
▁Liburu	-9.8209
▁kostu	-9.82196
▁kontrol	-9.82197
▁onartzea	-9.82241
MO	-9.82365
▁bear	-9.82442
▁ilun	-9.82533
▁baitira	-9.82611
▁Nahi	-9.82644
▁esaterako	-9.82683
▁apur	-9.82687
▁zazpi	-9.82721
▁sustatu	-9.82737
▁jardunaldi	-9.82767
▁sustatzeko	-9.82813
▁ederra	-9.82819
▁merkataritza	-9.82825
▁otsailaren	-9.82839
▁jokalari	-9.82856
▁gehiegi	-9.82918
▁azalera	-9.82954
bere	-9.83035
sion	-9.83072
▁Zein	-9.83125
▁berehala	-9.83129
▁eskutik	-9.8319
van	-9.83255
tasunez	-9.83469
▁ostiral	-9.83497
▁beraien	-9.83531
▁Hasiera	-9.83534
▁jaitsi	-9.83555
▁actividad	-9.83584
▁errespeta	-9.83626
▁isla	-9.83651
solu	-9.83757
▁(%	-9.83798
▁Sin	-9.83815
▁neu	-9.83876
arazten	-9.84068
▁txarra	-9.84091
▁gehi	-9.84117
ND	-9.84212
▁herritarrek	-9.84261
▁aipatutako	-9.84267
▁Bilbao	-9.843
▁jantzi	-9.84331
▁erantzukizun	-9.84334
▁Zubi	-9.84342
▁dezakegu	-9.84351
▁siguiente	-9.84352
▁sailkatu	-9.84599
kulu	-9.84689
▁kantu	-9.8478
▁hasten	-9.84791
bul	-9.85086
▁lehentasun	-9.85139
▁titular	-9.85197
egun	-9.85301
▁Oro	-9.85336
▁Lehenengo	-9.85343
logiko	-9.85351
ekiko	-9.85384
▁Larra	-9.85594
▁tele	-9.85658
▁interpreta	-9.85729
▁eguneko	-9.8575
▁diseinu	-9.85817
▁baliatu	-9.85847
▁Ayuntamiento	-9.85923
▁areto	-9.8614
▁dezaten	-9.86235
▁luza	-9.86285
El	-9.86288
▁Giza	-9.86296
ETA	-9.86506
▁behintzat	-9.86529
zional	-9.86648
▁nazional	-9.86681
▁helbide	-9.86976
▁tasa	-9.87013
▁Nazioarteko	-9.87123
▁Kontu	-9.87234
▁Halaber	-9.8725
▁aintzat	-9.87334
▁pisu	-9.87338
▁gainditu	-9.87355
▁nuke	-9.87439
▁ihes	-9.87461
EGI	-9.87461
▁iraun	-9.87497
behar	-9.87501
▁Hizkuntza	-9.8761
bro	-9.87665
▁inbertsio	-9.87719
struc	-9.87754
▁ebazpen	-9.8776
▁mutil	-9.87793
q	-9.87882
land	-9.88062
val	-9.88189
▁zizki	-9.88235
prozesu	-9.88364
▁ulertu	-9.88416
▁hautatu	-9.8851
▁bake	-9.88512
▁dizkie	-9.88584
▁burutu	-9.8861
▁Internet	-9.8861
▁seguru	-9.88664
▁geni	-9.88668
▁eske	-9.88686
▁Hego	-9.88718
▁Mer	-9.88749
gres	-9.88777
▁asteburu	-9.88785
ZI	-9.88988
XI	-9.89008
▁elikagai	-9.89014
▁Toki	-9.89016
▁futbol	-9.89069
antola	-9.89195
▁Min	-9.89224
▁ahalik	-9.8933
▁Informazio	-9.89455
▁Medi	-9.89584
▁ingurune	-9.8961
porte	-9.89625
▁ardatz	-9.89627
▁arrunt	-9.89723
▁nago	-9.89768
▁fabrika	-9.89769
▁errepide	-9.89784
▁horretatik	-9.89843
rekiko	-9.8985
▁osagai	-9.89881
mbre	-9.89895
gandik	-9.89919
▁mintza	-9.90016
▁konpontze	-9.90021
▁está	-9.90088
▁Legearen	-9.9017
▁kontsumo	-9.90251
▁gene	-9.9082
▁kontsumi	-9.90848
GAR	-9.90872
▁txar	-9.90886
▁Alderdi	-9.91036
▁esango	-9.91067
▁zinegotzi	-9.91334
▁joaten	-9.91361
▁gatazka	-9.91429
▁imp	-9.9149
▁zergatik	-9.9154
▁hizkuntz	-9.91595
▁anti	-9.91596
ones	-9.9166
LAN	-9.91847
punt	-9.91873
▁jaialdi	-9.91939
▁inolako	-9.92006
▁Hil	-9.92072
▁Errege	-9.92082
▁bilkura	-9.92189
▁Plaza	-9.92242
rentzako	-9.92271
▁desde	-9.92308
▁betiere	-9.92309
▁Iñaki	-9.92337
▁ikuskizun	-9.9242
▁klase	-9.9244
▁Uda	-9.92549
egite	-9.92627
▁erosi	-9.92664
▁plataforma	-9.92677
▁ahalmen	-9.92695
▁zaitu	-9.92747
▁ateratzen	-9.92757
▁landare	-9.92771
▁Pertsona	-9.928
▁ondare	-9.92848
▁behe	-9.92889
▁gehienez	-9.92911
▁guztiei	-9.93096
▁txanda	-9.93156
▁bulego	-9.9329
▁Xabier	-9.93422
puru	-9.93445
▁kargu	-9.93493
▁ikasleek	-9.93519
▁sentitzen	-9.93558
▁bertara	-9.93603
fektu	-9.93734
▁nau	-9.93777
▁antzerki	-9.93826
▁hego	-9.93875
▁zinema	-9.93949
▁presente	-9.93987
▁zibil	-9.94024
▁zuzendaritza	-9.94035
ambi	-9.94108
▁izugarri	-9.94141
▁istorio	-9.94389
▁testuinguru	-9.94473
▁Lab	-9.94653
▁baso	-9.9466
▁bihotz	-9.94709
▁Zuzendaritza	-9.94785
▁txapel	-9.94946
BIL	-9.94967
▁zitzaion	-9.95021
politik	-9.95032
▁balitz	-9.95062
ificación	-9.95178
▁Hain	-9.9527
▁Aita	-9.95289
▁Pedro	-9.95314
▁elkartu	-9.95489
▁molda	-9.95492
▁antolatzen	-9.95527
▁años	-9.9557
▁ebaluazio	-9.95859
▁Auzitegi	-9.95908
▁joateko	-9.95939
▁guzi	-9.96042
▁andrea	-9.96066
▁babestu	-9.9607
▁daukagu	-9.96272
▁Antola	-9.96326
▁datozen	-9.96409
▁iragan	-9.96452
PO	-9.96468
▁hurren	-9.96525
▁oraingo	-9.96566
Euskal	-9.96596
▁hasta	-9.96611
▁errenta	-9.96715
▁kanpora	-9.96771
▁gorabehera	-9.96797
▁Enpresa	-9.96811
▁Hai	-9.96812
▁agian	-9.96815
sarre	-9.96831
▁emaitzak	-9.9684
▁digute	-9.96842
▁bermatu	-9.96921
▁eliza	-9.96969
vers	-9.97019
▁memoria	-9.97056
▁medio	-9.97086
▁abesti	-9.97124
▁jasan	-9.97212
mental	-9.97282
fran	-9.97305
EHU	-9.97351
▁ezagutzeko	-9.97365
ux	-9.97477
▁artículo	-9.97674
aldatu	-9.97889
▁zaharra	-9.97915
▁metodo	-9.97969
▁primer	-9.98026
▁festa	-9.98167
▁aurtengo	-9.98174
▁funts	-9.98185
▁erreal	-9.98191
▁mantendu	-9.98317
▁heriotza	-9.98319
▁titulu	-9.98337
▁Kasu	-9.98423
▁uka	-9.98432
▁horretako	-9.98461
▁lasterketa	-9.986
▁zientzia	-9.9861
▁Jainkoa	-9.98656
▁genituen	-9.98704
▁formula	-9.98763
iste	-9.98788
▁lokal	-9.98855
▁errepika	-9.98917
▁lurra	-9.99075
▁Cor	-9.9929
▁bertsio	-9.99437
▁parke	-9.99444
spect	-9.99476
▁así	-9.99672
▁Ger	-9.99698
▁Orden	-9.9977
lehen	-9.99787
▁elektriko	-9.99859
▁Araba	-9.99862
STE	-9.9994
▁harrapa	-10.0017
XVI	-10.0036
▁fede	-10.0038
arazteko	-10.0039
UL	-10.004
▁nai	-10.0043
▁estilo	-10.005
▁ipuin	-10.006
▁harremanetan	-10.0065
AZIO	-10.008
▁Kontra	-10.0086
▁odol	-10.0088
▁mismo	-10.0098
▁anai	-10.0102
▁social	-10.0104
▁aditz	-10.0106
EE	-10.0109
▁XX	-10.0111
▁Programa	-10.0133
esten	-10.0138
trop	-10.0139
▁ziklo	-10.014
▁sindikatu	-10.0147
▁Handi	-10.0148
▁Itsas	-10.0164
▁telebista	-10.017
▁Agirre	-10.0173
▁mugatu	-10.0179
▁III	-10.0181
▁bertsolari	-10.0192
▁menpe	-10.0197
▁Ingurumen	-10.0199
▁albo	-10.0207
▁zeregin	-10.0208
▁garrantzi	-10.0219
▁aurkezteko	-10.022
▁borondate	-10.0224
▁uzta	-10.0229
▁PRO	-10.0233
▁liteke	-10.0243
CE	-10.025
▁azalpen	-10.0255
▁ahaztu	-10.0255
▁Ekonomia	-10.0256
▁ahots	-10.0256
▁taberna	-10.0258
ARRA	-10.0261
▁hay	-10.027
lizazio	-10.0273
▁espetxe	-10.0277
▁Landa	-10.028
▁erlazio	-10.0282
▁baza	-10.0291
▁abian	-10.0297
▁nazio	-10.0303
▁Sistema	-10.0319
mul	-10.0322
▁dezan	-10.0327
zerbitzu	-10.0335
▁aitortu	-10.0335
▁bazkide	-10.0336
▁margo	-10.0337
▁ikasten	-10.0348
▁ohitura	-10.0349
▁instituzio	-10.0355
▁bermatzeko	-10.0368
▁honela	-10.0369
▁aurkezten	-10.0374
▁Zuzen	-10.0383
▁Bor	-10.0399
▁nekazaritza	-10.04
▁asmoz	-10.04
▁dirudi	-10.0407
▁sustatzea	-10.0411
▁proposatzen	-10.0412
▁Nazional	-10.0414
▁sartzea	-10.0418
▁kritika	-10.0419
▁Sozial	-10.0421
▁berrikuntza	-10.0422
IR	-10.0433
▁iragarri	-10.0433
▁dauzka	-10.0446
▁trabajo	-10.0459
▁batzar	-10.0461
▁kom	-10.0477
GE	-10.048
KETA	-10.0481
▁kategoria	-10.0487
▁negozio	-10.0488
▁makina	-10.0504
KE	-10.0505
▁Ikasle	-10.0507
ización	-10.0511
stru	-10.0513
▁atzerri	-10.0531
▁zailtasun	-10.0532
▁betetzea	-10.0542
▁negozia	-10.0548
▁autonomia	-10.0574
▁hazi	-10.0579
BO	-10.0593
▁Azkenik	-10.06
▁euskera	-10.0628
▁eginkizun	-10.0641
▁Erdi	-10.0652
▁Garapen	-10.0652
▁dokumentazio	-10.0659
▁apustu	-10.0663
▁fiskal	-10.0666
▁kapital	-10.0676
▁hots	-10.0692
ARTE	-10.0694
▁aurkitzen	-10.0698
▁Sare	-10.0709
▁murriztu	-10.0709
▁hogei	-10.071
▁Hernani	-10.0711
▁ulertzen	-10.0772
by	-10.0773
▁psiko	-10.078
▁Gogo	-10.0782
▁gogorra	-10.0792
▁aske	-10.0798
Administra	-10.08
▁daitezen	-10.0806
▁estrategiko	-10.0837
▁merezi	-10.0858
▁eragindako	-10.0863
▁Fundazio	-10.0878
▁indartsu	-10.088
Ber	-10.0885
▁dezagun	-10.0889
▁badugu	-10.0889
▁soinu	-10.0891
▁pentsatzen	-10.0897
▁aurkez	-10.0897
▁será	-10.0898
var	-10.0898
▁tiene	-10.0931
ziurtagiri	-10.0934
larre	-10.0934
▁deitzen	-10.0939
EC	-10.094
▁isil	-10.0942
proiektu	-10.0947
▁karga	-10.0953
dentzia	-10.0954
▁podrá	-10.0957
zorro	-10.0963
▁Antonio	-10.097
▁Jakin	-10.098
▁batzuekin	-10.0988
▁lepo	-10.099
}\)	-10.0994
▁mediku	-10.1005
▁onura	-10.1008
▁kazetari	-10.1022
plica	-10.1026
▁kro	-10.1039
▁noski	-10.1046
fect	-10.1047
uste	-10.1057
▁Paris	-10.106
▁galdetu	-10.1071
▁Herritar	-10.1093
▁Europar	-10.1096
▁Aitor	-10.1102
▁bukaera	-10.1122
▁erantzuteko	-10.1129
▁babesteko	-10.1134
▁taula	-10.1135
▁Epai	-10.1141
▁hainbeste	-10.1142
▁zona	-10.1143
▁zorion	-10.1148
▁honekin	-10.1169
▁Gerra	-10.1184
▁zaizkio	-10.1191
▁presentzia	-10.1193
▁egunkari	-10.1199
▁entitate	-10.121
▁luzatu	-10.1215
▁Ondar	-10.1219
▁sekula	-10.1219
▁Gizon	-10.123
tzerakoan	-10.124
eremu	-10.1262
▁sortzaile	-10.1274
▁espezie	-10.1279
▁Lanbide	-10.1292
▁kodea	-10.1305
▁Museo	-10.1309
Katalunia	-10.1309
!!	-10.1312
▁aurreikusitako	-10.1315
▁irakas	-10.1323
▁egunero	-10.133
▁irri	-10.1337
▁belar	-10.1338
▁norbait	-10.134
▁agintari	-10.1342
▁emp	-10.1348
▁Hainbat	-10.1353
▁zituela	-10.1359
▁tres	-10.1366
▁Argazki	-10.137
▁goizean	-10.1372
OLA	-10.138
inguru	-10.1383
▁ziran	-10.1388
▁ahul	-10.1401
▁aitzin	-10.1406
▁Foral	-10.1406
▁proyecto	-10.1408
▁pertsonek	-10.142
▁Helburu	-10.1427
▁AEB	-10.1432
▁belaunaldi	-10.1434
▁emozio	-10.1466
sign	-10.1468
▁gizonezko	-10.1483
▁Real	-10.1488
▁protagonista	-10.1491
▁aspaldi	-10.1496
▁natura	-10.1497
▁participa	-10.152
▁zegoela	-10.1522
▁Arrasate	-10.1534
▁irten	-10.1543
▁gradu	-10.1555
▁tanto	-10.1556
▁zaizkie	-10.1562
ell	-10.1572
▁badaude	-10.1572
▁berde	-10.1576
▁General	-10.1577
▁autobus	-10.1584
▁astelehen	-10.1591
▁zidan	-10.1595
▁erlijio	-10.1598
▁eutsi	-10.1621
▁erregistro	-10.1627
▁empresa	-10.1628
▁Alemania	-10.1637
▁espediente	-10.1647
▁abertzale	-10.1666
▁Bertso	-10.167
▁Egilea	-10.1699
▁Behin	-10.1735
▁geroztik	-10.1739
▁ikastola	-10.174
▁izapide	-10.1742
▁aurpegi	-10.1751
▁eguzki	-10.1754
▁eraginkorra	-10.1775
▁beha	-10.1778
▁ikasteko	-10.1785
▁finkatu	-10.1795
▁ebalua	-10.1795
ibo	-10.1797
▁nabari	-10.1798
▁gaixo	-10.18
▁pieza	-10.1802
▁gaizki	-10.1813
▁deberá	-10.1817
▁xedapen	-10.1827
▁industrial	-10.1832
▁opor	-10.1833
▁sarbide	-10.1849
▁obliga	-10.1852
▁eskuragarri	-10.1861
▁ospitale	-10.1866
▁Gauza	-10.1868
▁larunbat	-10.1873
▁genuke	-10.1886
▁geroago	-10.189
▁www	-10.1894
▁azoka	-10.1895
▁honetara	-10.1902
▁banku	-10.1905
▁Buru	-10.1906
bilidad	-10.1925
▁faktore	-10.1926
▁maitasun	-10.1928
▁konplexu	-10.1933
▁hautagai	-10.1939
▁azpiegitur	-10.1946
▁Familia	-10.1956
ketetan	-10.1956
▁koadro	-10.1971
▁halaber	-10.1972
▁también	-10.1978
▁iristen	-10.1991
▁lortzea	-10.1997
mug	-10.2005
▁garela	-10.2007
LU	-10.2026
▁ikustea	-10.2033
▁Gernika	-10.2042
erregula	-10.2046
▁funtzionamendu	-10.2048
▁aski	-10.2048
▁zehazten	-10.2051
siones	-10.2057
▁dirulaguntza	-10.2058
▁lizentzia	-10.2066
▁aparte	-10.208
▁kultural	-10.2084
▁Norma	-10.2086
▁balorazio	-10.2096
▁Oinarri	-10.2104
ALDE	-10.2105
▁irteera	-10.2109
▁persona	-10.211
ARRI	-10.2135
▁harrera	-10.2137
▁Ter	-10.2141
ñi	-10.2142
▁tamaina	-10.2147
▁José	-10.2149
▁Zientzia	-10.2156
▁Behar	-10.2167
▁kontserba	-10.2177
▁konpainia	-10.2193
▁Azpi	-10.2206
▁gainetik	-10.2226
molde	-10.223
▁Iker	-10.2235
▁sailkapen	-10.2244
▁oreka	-10.225
▁atxilotu	-10.2264
▁baxu	-10.2275
▁geure	-10.228
ELA	-10.2283
▁epaile	-10.2285
▁ESK	-10.2288
▁jatorrizko	-10.2297
▁berariaz	-10.2301
▁Getxo	-10.231
▁nolabait	-10.2317
rogei	-10.2323
▁zuzendutako	-10.2336
▁isur	-10.2337
OL	-10.2352
sexual	-10.2353
▁erabilgarri	-10.2357
▁global	-10.2375
▁polizia	-10.2379
▁akats	-10.238
▁soldata	-10.2381
▁zaitez	-10.2382
▁Zahar	-10.2399
▁Joxe	-10.2399
▁Aldizkari	-10.2404
komunitate	-10.2415
▁bilakaera	-10.2417
▁larunbatean	-10.2428
▁hasteko	-10.2437
€	-10.2455
▁orrialde	-10.2471
▁Mahai	-10.2477
▁Denbora	-10.2486
▁derecho	-10.2496
▁diegu	-10.2513
▁uso	-10.2525
▁Hirugarren	-10.2527
▁Politika	-10.2529
▁cuenta	-10.2529
▁New	-10.2533
aldatze	-10.2555
▁militar	-10.256
▁linea	-10.2568
erkidego	-10.2573
▁pauso	-10.2575
▁Hurrengo	-10.2588
▁amor	-10.259
▁ordainketa	-10.2591
▁txikiagoa	-10.2593
BIDE	-10.2603
▁zientifiko	-10.2607
▁Ikerketa	-10.2607
▁nituen	-10.2613
▁klima	-10.262
araztea	-10.2624
▁analisi	-10.2639
▁turismo	-10.2639
▁irtenbide	-10.2646
▁plazo	-10.2647
▁greba	-10.266
▁bilakatu	-10.2677
▁adostu	-10.2683
▁ezartzea	-10.269
▁Hel	-10.2691
cept	-10.2707
kultura	-10.2708
▁espezifiko	-10.2711
sistentzia	-10.273
▁acuerdo	-10.274
▁amets	-10.2751
▁objektu	-10.2754
▁Aldundiak	-10.2759
▁atsegin	-10.2759
▁irrati	-10.2762
linguist	-10.2765
▁itzal	-10.2773
▁Gasteizko	-10.2776
▁puede	-10.2777
▁Bergara	-10.2781
▁pozik	-10.2788
▁lehor	-10.2801
▁kooperatib	-10.2822
▁urtebete	-10.2832
▁ikusgai	-10.2837
▁público	-10.2843
▁albiste	-10.2849
▁diseinatu	-10.2857
▁udaletxe	-10.286
▁ildo	-10.2868
▁Gobierno	-10.2868
▁Industria	-10.2881
▁erantsi	-10.2885
▁Zentro	-10.2887
▁gehigarri	-10.289
▁Langile	-10.2893
▁eraginkortasun	-10.2902
▁Dantza	-10.2906
▁gustatzen	-10.2906
▁BAT	-10.2913
▁[...]	-10.292
▁Orokorra	-10.2924
▁prebentzio	-10.2938
▁Natur	-10.2941
▁elkarlanean	-10.2956
▁museo	-10.296
▁Indar	-10.2965
▁eroso	-10.2971
▁lirateke	-10.2972
▁idazkari	-10.3004
mendebalde	-10.3008
▁kopia	-10.3015
▁general	-10.3027
▁piztu	-10.3073
▁gutxieneko	-10.3079
▁seinale	-10.3081
▁Jende	-10.3095
▁jasangarri	-10.3104
posición	-10.3108
▁abiadura	-10.3125
▁izenburu	-10.3132
▁ezazu	-10.3139
▁Ekintza	-10.3148
torial	-10.3173
▁zuhaitz	-10.3179
▁ipini	-10.3182
▁personal	-10.3188
burg	-10.3192
▁tradizional	-10.3203
▁uztea	-10.3236
▁ostegun	-10.324
▁emazte	-10.3246
▁egitarau	-10.3249
▁dagozkion	-10.3249
▁nortasun	-10.3257
▁Eibar	-10.3265
egonkor	-10.3268
▁hedabide	-10.3269
TRA	-10.3272
▁ordenagailu	-10.3273
▁Eskubide	-10.3292
▁Egoera	-10.3293
▁hobekuntza	-10.3295
▁dakigu	-10.3297
▁aurreikusten	-10.3311
▁lurzoru	-10.3311
▁irakaskuntza	-10.3316
▁aktore	-10.3322
▁defentsa	-10.3331
TZEKO	-10.334
▁bazkari	-10.3341
▁txakur	-10.3346
▁valor	-10.3362
▁mayor	-10.3381
▁Enplegu	-10.3383
▁hazkunde	-10.3392
▁errolda	-10.3406
▁kokatzen	-10.3407
▁prentsa	-10.3435
▁Durango	-10.3455
▁haize	-10.3455
script	-10.3455
▁itzulpen	-10.3456
▁Osakidetza	-10.3458
▁zaude	-10.3462
▁antolatzaile	-10.3476
▁suntsi	-10.3488
▁iraupen	-10.3497
▁laugarren	-10.3519
▁Institutu	-10.3522
▁baiezta	-10.3531
ekialde	-10.3532
serva	-10.3543
▁teoria	-10.3546
▁mesede	-10.3557
▁irabazle	-10.3589
▁bizikleta	-10.3595
▁Babes	-10.3622
▁Miguel	-10.363
▁gutun	-10.3658
▁Krist	-10.3671
▁esanguratsu	-10.3683
▁kalkula	-10.3689
▁kontzientzia	-10.3701
▁moderno	-10.3722
▁correspondiente	-10.3725
▁senide	-10.3738
▁kreditu	-10.374
▁tipo	-10.3749
▁zorrotz	-10.375
▁salmenta	-10.3766
▁eramaten	-10.3767
▁komeni	-10.3768
▁nahitaez	-10.3774
ALDI	-10.3787
▁diezai	-10.3815
▁Italia	-10.3837
▁enpresen	-10.3844
▁trabaja	-10.3857
▁bestalde	-10.3869
▁existe	-10.3869
▁Usurbil	-10.3878
▁public	-10.3881
▁Ikastola	-10.3881
▁herritarrei	-10.3883
▁Testu	-10.3884
▁Etxebizitza	-10.3884
▁herritarrak	-10.3897
▁Iturri	-10.3905
▁klub	-10.3906
▁urteotan	-10.3906
▁komunikabide	-10.3911
▁itun	-10.392
ACIÓN	-10.3937
▁hausnarketa	-10.395
▁orienta	-10.3952
▁ikuspuntu	-10.396
▁dizkigu	-10.3969
▁cuando	-10.397
▁tenperatura	-10.3984
▁potentzia	-10.4
▁jatetxe	-10.4005
▁mikro	-10.4013
▁arrantza	-10.4036
▁automatiko	-10.4039
▁Jarduera	-10.4051
▁municipal	-10.4051
▁aberats	-10.4065
▁Bartzelona	-10.4067
▁Historia	-10.407
▁truke	-10.4073
▁konfiantza	-10.4079
▁adimen	-10.4084
▁norabide	-10.4093
EMA	-10.4093
▁kudeatzeko	-10.4113
▁klasiko	-10.4144
▁pantaila	-10.4144
STI	-10.4153
▁jokabide	-10.4161
▁Popular	-10.4163
▁aurreikusi	-10.4183
▁kritiko	-10.4188
▁opari	-10.4188
ví	-10.4191
▁inprima	-10.4195
▁jakitea	-10.4197
qua	-10.4218
▁xehetasun	-10.4222
▁jakiteko	-10.4231
▁legebiltzarkide	-10.4237
▁Ekain	-10.4252
▁gonbidatu	-10.4266
▁errespetu	-10.4285
▁antolaketa	-10.4289
TZI	-10.4291
▁Gabon	-10.4304
▁salbuespen	-10.4306
▁anterior	-10.4307
▁organiza	-10.4313
▁otros	-10.4324
▁Manuel	-10.437
▁zerikusia	-10.4376
▁ministro	-10.4379
▁misma	-10.4379
▁Alkate	-10.4393
▁abuztuaren	-10.4393
▁istripu	-10.4408
▁Web	-10.4411
▁dihardu	-10.4414
▁onuradun	-10.4424
▁mejor	-10.4448
▁zehazki	-10.4449
▁ezartzeko	-10.445
▁abendu	-10.4455
▁demokratiko	-10.4468
▁aniztasun	-10.4485
behineko	-10.4486
▁grupo	-10.4491
▁joatea	-10.4492
▁sufri	-10.4501
emaitz	-10.4507
▁agerraldi	-10.452
▁Segurtasun	-10.4523
▁solairu	-10.4526
▁tradizio	-10.454
▁igeri	-10.4544
▁alokairu	-10.4555
▁Iñigo	-10.4562
▁Que	-10.4578
▁ezagut	-10.4586
▁manifestazio	-10.4597
▁gaztelaniaz	-10.461
▁geltoki	-10.4633
▁bizimodu	-10.464
▁entidad	-10.464
▁punto	-10.4653
▁cumpli	-10.4656
tibitate	-10.4665
▁dokumental	-10.4666
▁ospetsu	-10.4666
▁kartzela	-10.4677
▁Artikulu	-10.4692
▁bloke	-10.4695
▁Aukera	-10.4701
▁prestatzen	-10.4736
▁Argitalpen	-10.4738
▁eranskin	-10.4741
▁termino	-10.4743
▁Ministerio	-10.4758
▁Ikastetxe	-10.4767
ztapen	-10.4771
▁saiatzen	-10.4778
▁frantses	-10.4779
▁online	-10.4781
▁orokorrean	-10.4785
▁COVID	-10.4787
▁dekretu	-10.4787
▁bilketa	-10.4795
▁erraldoi	-10.4807
bentzio	-10.4817
▁esanahi	-10.4822
▁Social	-10.4829
▁adostasun	-10.4849
▁eramateko	-10.485
▁ayuda	-10.4857
▁atzetik	-10.4857
▁nerabe	-10.4857
▁Ertzaintza	-10.486
▁teknologiko	-10.4866
▁ekologiko	-10.4885
▁etxebizitz	-10.4886
▁bederatzi	-10.4887
▁result	-10.4894
▁oztopo	-10.4914
▁gazta	-10.4921
Maiatz	-10.4937
▁prestazio	-10.4938
▁normaliza	-10.4951
ight	-10.4951
▁segundo	-10.4974
▁erritmo	-10.4978
BURU	-10.4994
▁uzteko	-10.4999
▁Zenbat	-10.5009
▁estudio	-10.5021
▁autonomo	-10.5028
▁argitalpen	-10.5038
▁sozietate	-10.5045
▁bikoitz	-10.506
▁sistem	-10.5062
▁espainiar	-10.5069
uztail	-10.5071
▁osatzeko	-10.5077
▁determina	-10.5086
▁Aipatu	-10.5086
▁praktiko	-10.5096
▁elikadura	-10.5113
▁Turismo	-10.5154
▁Ogasun	-10.5158
▁Irakasle	-10.5161
▁ingeles	-10.5164
▁pandemia	-10.5165
▁iturburu	-10.5182
▁Justizia	-10.5192
▁azpimarra	-10.5196
urtarril	-10.5197
▁especial	-10.5261
▁konpondu	-10.5261
Azpeitia	-10.5265
registr	-10.5276
▁ezinezkoa	-10.5279
▁zaizu	-10.5283
▁agente	-10.5287
▁negatibo	-10.5313
▁Javier	-10.5324
▁zarete	-10.5327
▁antolatzeko	-10.5343
▁regula	-10.5359
PENA	-10.5367
▁Hortaz	-10.5391
▁kapitulu	-10.5401
▁goberna	-10.5436
▁Artículo	-10.544
▁gustuko	-10.5462
▁korrika	-10.5465
hauste	-10.547
▁ezagutzea	-10.5477
▁xedatutakoa	-10.5496
▁txirrindulari	-10.5503
▁murrizketa	-10.5503
▁langabezia	-10.5503
▁Esate	-10.5512
▁esleitu	-10.5515
direct	-10.5524
▁Konstituzio	-10.5532
▁eragiket	-10.5543
▁asteazken	-10.5557
▁bizkar	-10.5595
zientzi	-10.5601
▁pública	-10.5607
▁efecto	-10.5612
▁durante	-10.5613
▁tiempo	-10.5614
▁lugar	-10.5626
▁Inguru	-10.5639
▁Euskaltzaindia	-10.565
▁Trans	-10.5654
▁Errepublika	-10.5661
▁aquel	-10.567
▁Baiona	-10.567
▁Carlos	-10.5689
▁salaketa	-10.5694
▁konponbide	-10.5701
▁Errusia	-10.5701
Ó	-10.5708
▁cualquier	-10.5708
▁gainontzeko	-10.5723
entzunezko	-10.576
▁diputatu	-10.5788
▁Lehendakari	-10.5806
▁distantzia	-10.5806
jarduera	-10.5816
▁hamaika	-10.5817
▁gustatu	-10.5819
▁Gehien	-10.5825
▁Orokorre	-10.5826
▁Aurrekontu	-10.5841
▁paisaia	-10.5847
▁Abendu	-10.5851
▁abantaila	-10.5854
▁Oñati	-10.5883
▁gomendio	-10.5895
▁euskarri	-10.5913
▁sasoi	-10.5922
▁blog	-10.5927
▁centro	-10.5932
▁zapal	-10.596
▁pentsio	-10.5962
▁diskurtso	-10.5965
▁Energia	-10.5969
▁bertatik	-10.5981
▁ukitu	-10.6007
▁ekipamendu	-10.601
▁igual	-10.6014
▁baliagarri	-10.6027
▁desarrollo	-10.6036
▁representa	-10.6047
▁Erresuma	-10.6047
▁Afrika	-10.6047
▁erosketa	-10.6054
▁atseden	-10.6058
▁Parlamentu	-10.6066
▁merke	-10.6079
▁leiho	-10.6085
▁mobilizazio	-10.6092
▁turist	-10.6095
▁ustia	-10.6097
▁ciudad	-10.61
▁Erabaki	-10.61
▁zerbitz	-10.6105
▁Zinema	-10.6117
▁estandar	-10.6117
▁nueva	-10.6119
▁actual	-10.6133
▁ejercicio	-10.6141
▁solicitud	-10.6141
▁iradoki	-10.6155
▁País	-10.6176
Itzul	-10.6178
▁zelul	-10.619
▁fitxategi	-10.6191
▁modelo	-10.6214
▁nuevo	-10.6221
▁vol	-10.6245
«	-11.0495
“	-11.1446
•	-12.1325
‘	-12.9441
